node {
  name: "x1"
  op: "Placeholder"
  attr {
    key: "dtype"
    value {
      type: DT_FLOAT
    }
  }
  attr {
    key: "shape"
    value {
      shape {
        dim {
          size: -1
        }
        dim {
          size: 32
        }
        dim {
          size: 32
        }
        dim {
          size: 1
        }
      }
    }
  }
}
node {
  name: "sequential_1/conv2d_1/convolution/ReadVariableOp/resource"
  op: "Const"
  attr {
    key: "dtype"
    value {
      type: DT_FLOAT
    }
  }
  attr {
    key: "value"
    value {
      tensor {
        dtype: DT_FLOAT
        tensor_shape {
          dim {
            size: 5
          }
          dim {
            size: 5
          }
          dim {
            size: 1
          }
          dim {
            size: 6
          }
        }
        tensor_content: "\000\211!\275vF\022\276O\3365>\320\335\024\275 E==\357b\230\275Kh5\276\253\326\006>PV~\274\327o\336\275\260\317+\274\357\033\024>\335\347\272\275:(\235=\302\243\235=\302m\227=\'?\354\275\375\266\002>s\307\273\275Wn;\276}\376\325\275\004\341\240\275q[\022\276\220\020\014\276\200\344j\273q\203\025>\266_\320=s\223,>P\373\336\275(\205\233\275&\351\271\275\361\243\220\275\321\0053>\200\252\230\275Y)$\276.\352\202\275 \242\233\273D\256\010\275n^\004\276Y1(>&\027\036\276X\001\n\275\251\021\267\275\035\3745>\252\333\035\276~\3761\276bx\327\275\300@\366<\210\\O\275[h\255\275\n\242\253=\321\216\277\275\214\300@=Ks\023\276\345\346#\276\305\3775\276\346\247\350=\200\267q\275p=&\276\350\224\230\275\3759 >*\257\317\275A\206\013>\020\257\223\274\212\374\343=\350\263\220\274\004\355\273\275\034R!=\200\002_\273\246\317\215=\232\360\256\275\274\206\203={\250\037>\200E[\273&\312\242\275@\354P<\261\322\246\275\200\303u\275^\225\224=M\2468>\300\200.\273B\351\327=(n\342\274\3345\321\275\247\024/>\000hm<\270\300\t\276,u\026\276\370\315\321<X\".\276\3158\032>\240\254\025\276\0001\204;\020\301h<\270\307H\275v9\322=\341\225\030\2760\001\321\274\340\006\336\274\354\024T=\020&?\274\302\344\316\275\n\371\001\276\234r:\275g\034(>\270k\002=\256\244\340=\300\260 ;Y\211:\276\240`\253\275)\032\256\275\nv\332\275(\300\203=1\355\227\275\020\360\306<\330v\267<\002\223\354=\010\354 \275{\317\001\276\200\341\027<\370\204\026\276\005\2431>\013\007\002>p;\021\274\301\230\003\276\2377\016\276\235\235\017>;}\360\275\246\274\242=E\235\004>d\344\373\275I\300*>g\2060>b\236\330=\230\375\337<n\340\256=WZ;>+\274\007\276\240m\211\275\236\205\360=\030\307B\275\246\016\227\275\247\211\331\275\3604\033\276`\241f<\210\032J\275\310\267\022\276d\264\n\275\266\010\335=[\201\364\275"
      }
    }
  }
}
node {
  name: "sequential_1/conv2d_1/Reshape/ReadVariableOp/resource"
  op: "Const"
  attr {
    key: "dtype"
    value {
      type: DT_FLOAT
    }
  }
  attr {
    key: "value"
    value {
      tensor {
        dtype: DT_FLOAT
        tensor_shape {
          dim {
            size: 6
          }
        }
        tensor_content: "\000\000\000\000\000\000\000\000\000\000\000\000\000\000\000\000\000\000\000\000\000\000\000\000"
      }
    }
  }
}
node {
  name: "sequential_1/conv2d_1/Reshape/shape"
  op: "Const"
  attr {
    key: "dtype"
    value {
      type: DT_INT32
    }
  }
  attr {
    key: "value"
    value {
      tensor {
        dtype: DT_INT32
        tensor_shape {
          dim {
            size: 4
          }
        }
        tensor_content: "\001\000\000\000\001\000\000\000\001\000\000\000\006\000\000\000"
      }
    }
  }
}
node {
  name: "sequential_1/conv2d_1_2/convolution/ReadVariableOp/resource"
  op: "Const"
  attr {
    key: "dtype"
    value {
      type: DT_FLOAT
    }
  }
  attr {
    key: "value"
    value {
      tensor {
        dtype: DT_FLOAT
        tensor_shape {
          dim {
            size: 5
          }
          dim {
            size: 5
          }
          dim {
            size: 6
          }
          dim {
            size: 16
          }
        }
        tensor_content: "\336\330\252=tf\300\275\314l\206\274\354\212\326\274\234\371\242<\006\3401\275&\207\233=\224 \260=@\262\375\274C\326\270\275GU\263\275\024\306\005=\334\276\251\275Pu\330<p|@=\300\213\346:\360\r\310\275O\335\314\275\\\r\274\274D\352==P\310\230=>\364\207=\314\201\205<y\317\223\275@\2769<@\357\221\272@\304\262=\024\377\321\274\374\306\331\274\013\2769\275\311\215\247\275\350\272w=(\226\232=T\004`=?\036k\275\364\336\224=x\351\201=#~@\275B\324\217=\006\301\205=\240=\340\274zI\274=\242\325\225\275`\032B<\000\373\267=Ye\264\275@\253\255<\221IW\275\001\r\236\275\243w\231\275\260!\264\274\334\305\237\274\276L\022\275\366,<\275r)\254\275X\372\314=`9J=\370\246d=\023e\306\275\006\231\206\275\244?\245<\236\226\231=\360q(<\214\347\211=FJi\275\310\364}\274|\034\027=F|\207=Pk~\274\311\021\244\275\027\271E\275d\031\r\275>\021\014\275t\236\r=\030\203\337<\343\375\234\275*z\224=\305\304e\275\322\323n\275\360\324\267\273\272\260p\275.\343\021\275`K\370<\236c\324=t\362\254\275pw\272<\254\211#=p\031\311=\225\"j\275\010\244\202=\312\336\211=\000\001v\274T@\300\27580@\275Z^\260=\246\251\002\275\030\326\234\275\370\261\210\275\250\240\250\274\250\256\377<\300\361\244\272\300;\260\274lY\313=\3062\202\275jm$\275\020}\203;\360\215\264=\300\207N\273\037\304t\275Dw\242\274\200{\030\275\020\323k<J\006\002\275\364\322\321\274\210yD=\270\227\\=\030Fm=\250\'0<1\2454\275\240\003%<\374\"\023=\034\355\366\274\244\273\'\275\357B\316\275\225\341\\\275\266\360\250\275\210\263\r=\024L\035=\314\027\300\274.\230\262=(\204@\274P\027\205=\352\262\252\275\000_\242=\336\246\214\275\020\246\272<l\037\215=\274\235\262=(h\257<\354C\\\275\000r\215\271\260\252\353<\206\304\232=\246\037\212\275P\010\357\273\002\357Z\275\2043\201\274\344\003\363\274 g\355\274\274\337\214\275\177H\317\275\216k\271=32\225\275\314V3=h\260\226=x\361\031\274\\\325a=\004z\216\275\0161\t\275n\265\310\275\0142\270=^\214\322=\000hM\275\330\202K=\216\215\210=\014\254\003\275\266\003\001\275\306g\221\2752`r\2756\225\241=s\376\310\275\300\236j\274\227\377\252\275\364\030\300=8\274W<\252\377\243=\270w\366<~\366\272\275\010\254\342<d\010\200\274\354\2462=0\332\225;\214B\270\275\340Z\025\274(\322\\\274\272\254\224\275V\r\277=\00020\272\324\030.=\350\010R<\354\340\006\275\260\005t\275\270z\277=\250)}=\304h|=\370`A\275X\034\215=\3373\201\275?\300\325\275l\034S=:\013\230=\237\335\316\275\014h\203</iG\275\214\223B=\314\343\'\275pi\204=\210\252\237\275TC2=,L\354\274\020\"\032=ND\241\275\303\245\244\275\024\333\314=X1\351<|x\242=\330\340\204\275\t+\323\275\240\257\010=\350W\323\274\030V\354\2740\364\235<\224\026\255\275\244\343\003\275Tr\037=\2663\264=\2007\270=0\030\265\274\334\346\245<X\017\304<\272\274\256\275*\264\243\275\2720\247\275j\215\222=\200\237b:D\272\320=\337\364\251\275\r,r\275\3144)=\002M\022\275d\203\306=-\'~\275\300\373m\273\351v\305\275D:0=>\312\231=\354\270\343\274\260\253n\275X\352N=\240\033\222<C\304\206\275\000\216\3729$]\234=\230\026\307=\375\217\252\275\006C\274=\270\322<<\364`\252\274&\374\t\275\232\350\314\275A\306\245\275\216\350\200\275C\014\245\275\3254\205\275\376\0218\275F\247\245\275\322\333\272\275\344\023\035=\250A\250=\016J\261=D\351\304=\274Y\014\275\010\267\034\275\352\327\253=d\227\220\275\214\016a=\014\262\014=\360\227&<~\204\025\275\010\251y=\020\004\036<\362\307\017\275V\003\220=\320\no\275\000\3633<t(\r=\230\225L<XG\342<d\367\222\274`\010|;<\313\245<H\177\200\275L\346V=\314\264\223\274\371(\301\275\260\203q=z\357\220=X\366\217\274\340\034\217=\212\375\320=\220^?<-\202\204\275W\267\237\275\343\036\274\275\204\335D\275\247\237Z\275\270;\314\275\211\277Y\275P\357\361<n\001Q\275z7\212=(?y=\024\311\231\275\242C\307=\210c <p\211\214\273\020\262\275=\340\264\314<\273?\265\275pE\251= \225\202=\254iJ=\024\tD=\000\007\213;\246\2226\275\000i\274\271\262\254>\275\272\322\227=T\372\240\275\207\255B\275\210\275\253\274\370,o=\270\013\n\274\034\364\370\274\024m\233<\274\037\216\275\370I\255=\246=`\275`\nm=\314\256\253\275\276~\316\275\266\365\204=HI\265<\2748c\275B\366\236\275\032\363\245\275n\036F\2750\003\237=&d\237=x\017M\274\tf\311\275*\020\262=\240\000^=H\2403<8\376\226<\220\267\367;`8\363<\306\215\314=\360\024\313\273\370n\004=\010\302\203\275\250O\200=\314\271\222=\032\031\265= L\317<\261\200C\275\037\000\211\275\340\245\331<\022\036\302=\260\227\242\275b\267\316=\300\233s=%\346\241\275\356\305\243\275\025\302\217\275\020p#<0\025\215\273x\266f<|\014\330\274\274vF=`\325^;\224\335\026\275P\244\207\273pD\007\274\210y\266=\310/\265=8\234\307\275\260h\353\274`\372\265=\\\360\241\274|\322b=0\236\335\274U\230b\275\214\254\335\274\220\213\313\273K/\311\275L\320\246=S\306Y\275\202\305\002\275(\006\227=\326h\261\275P;\034=tW\315\274L\355y=Hqi=\331\035J\275\006\372\256=\360\317\230=\340G\326<@X\272\274\236\020\226=\000\t\033=@\354\222;\364\013\220=\340\027\374;\307\217F\275D\277p=\312S\250\275\024/\322\274\370Y\200=MIn\275\000 \2367@\004\237\272\212\220\036\275\000\314^\272p\300t\275\207\330Y\275\200\370!\272\000\250C\274\204\200U=\334\351\300=\260\304\215\274\200!\023\273\000S\366\274\206\312\301\275N\344\237=\340\010\342< _\263\273`\033J=\2522\221\275L\236\330\274 U\340;\334\311\366\274\317F\307\275<\276\n=\330u\246\275\340\204\364\274\014\267\014=V\016\316=\266*\244\275\242\206\301=pf\320\274\314.\001\275\330\202a\275\224,\'=\000\377\255=\014\204\203=\300\327\313\275p2\255\275\340\022\';\320\262W\274\234\241\271=8\255}<<\212\002=\230_V\274\t{`\275\304%\230=2#\225=\014\247\226=\210w\233<l\273\t=|\365&=gM\253\275\336\335\276=\010\355\234\274\270H\202\275 \031\267\275j\020e\275<xv=\022\306\222\275\255\365,\275NZ\305=X\210\345<\340tg<\210\216,=lo\002\275T]&=\272O~\275\010\371\311\275\024\255\226\275\202\271\315\275\220\273r\274\212X\265=\375\326\305\275\372\250\216\275\330\200\022=@\271\255\274\027\336k\2758:A\275x<L=\230Y\253=\240\343Z\273\370\375\242=\204\016&\275\240\003\226= \313)=\340\023\010;\240\2436<\036\r\236=\350\361z=\260\342\263;\240f\251;h=e\275\300j\220\275\004|\263\275P\033K=\200\262\303:\222[\217=\240B\262\273\201X\315\275@\037\366\274]b\272\275\262`\223\275\201\333k\275\331\2205\275\316\360\301\275\362\027\260=\350\273\026\274\240t;<\234\0038=\320\014\220=\217<\277\275l\227\206<\210\352\330<\304\373\202=\022\223W\275\026\356\247=\000\277\251<\013\033?\275\346z\260=\310\023?\274d\315M=@\350\266<\252\317\250\275\222!\200\275\2750\234\275\344+J=PU\255\273H\244\351<7\205\320\275\254t\265\274@\002\020\2754\265\313=hT]\2746#\245=\234aq=\350\014t\274Z\317\325=X<2<\260\364*\274t\310\201\274\360Gh<\002\023\226=\314\231\224\2748\355\203=\020E\274;\226q]\275`\032p\275\266\221\322=9\204\322\275\264_\232\275L3e=~{\013\275M+\307\275\210ae<\014\3533=\370\344\364<\220\300\263\274\300\3317\273\000\031\213=1\034\233\275\230xA=\344\315M=\3205t\275\320R\034\275\014&\300\275T\215\262\275 =L\274\274\025n=\330\276/==[\\\275T\037\221\275\024\215\220=\\-\267\275\370!\016<]\257\263\275\345*d\275^\221\223\275H\023\r=\336\314\254=0\274j\274\200\274[:F\0033\275\320\357&\275p}\221\274,*]\275\rUI\2758\267\312=\360\341\261\274\314\262\237\274\220\320|=\274W\027\275&\033\031\275\360W\306= \340\260;\320iT\274\340\247\301\275\270=g<\\.\224\275D\272\035\275\233\004\274\275\200\t\301\274r]\230=\376\277\300=\000\202\246=\230\302\\\274 \255\300=\000>\263\275\222p\323=\226m\266=\260vx=\341XQ\275.\'\314=*\302\302=\300f\315<\240]9\274\274\337\317=8\251\210\275X\307;<\177z\266\275\254U\202<6\303\237=\202\370\322\275p\222\341\273D\315\233\275\014\211\301=\220\264\316\274\334\355\235\274\270\244\324<\240v,<\\\206\257\275Z\242\010\275\231\377R\275`\177I\275\234Y\341\274y\374\303\275\224\316]=\370\335\003\274\360\247\313<\034\336E=\020\363\322\273Z\301\265=\250\317\211<\300\300C\274\215Ps\275\350i\330<\312&\225\275p=R\274\234\330\355\274\200\325\331<\212:\217=H_\310\274P\027P<\020\345\203=\300\375<\274.@\226=q\036\274\275n\003\307=,\304\323\274\220Ci=\007gA\275&\227\257\275\253\n\271\275\204\237\225\275t\345i\275\231\013]\275@\021R\274q\332\221\275\004\016\006=\272w\211\275X\014O\274d\277\267\275\260\355!\274\004cQ=\234\241&\275\354>\n=\300`\304\274\024\361\257\274\264\317w=\0241\262=\340p\320=\242\235\004\275\254PD\275@E\235\275\244\243N=\360\020\r=$o\262\274g\253\242\275\264Bd=\004\327\272\275@\345d\2740\273\345\273X\216\347<\230\016n<\340]\265\273\031\253/\275\300^\231=\340M\000=|H\224<\250\026\231\274j\032\201=`\351==p\237\267;\362\035\243=<\'\245\275\200\371S:\000\264j\273$\235\333\274\330\373,=,B\220\275\310\227S<\010\216\236=m\260\200\275p\227c\274\3241/=0*\335;0T\270=\265\020\264\275\230\031T\274\220\265\307<\214tW\275\032\321\312=\204\251\237\275\240\364m=\002\005\277=\200\3706;#\267\245\275\354\323\002\275\000\217\024<\210x\230<&\006\252=\370oG=\220N\301=@\2617\275m\355\242\275\205\223x\275\336\014\277\275D\335d=\350R.\274\246I\222=kN\310\275|\236\324=w]\214\275\360\357S=\214\257\243\274k\350\226\275X;\020\274\340W\177=\020>r=nF\277=\245\320\236\275$i\375\274F\263\301\275`\337\326\274.0&\275\236\300S\275\360n\214=g:\301\275p\346\321;$\236\320=\214k\363\274-s;\275\234\376K=mNU\275t<\230=\260\321V=h\331\220<\216\314\216=\234[x=4\216\226\274uVo\275\030\343\000=\313\345\262\275Z\206\275=A\rf\275Z?\300=h^\272=P\312\274\274\224_\252=\204\355L=\333I\247\2750\263+\274X\301\263<R\375\225=A\326\231\275\240\017\326\274\250P\264=X7m=\025\013\203\275\340P\273=\370\030\\\274\010\320\262\275\373=d\275\360b\203<\366H\232=PLR=Xx\263<\230\233\273=0\367y\2750\206\"\274\356\342\031\275!\245\203\275|\016\310=l\361^=TvO=\344\341\303\2750\333#=\000iL<\260\257\242\275\354z\346\274\244\225a=B\257\305=\030\335k<`D\367<\250\031}<t\261\000=@\030\005\275\010\257\001\275\274\311\226\274|E\242<\344\342q=\351\211\246\275\346(\310=\325\310~\275\256\243\261\275\340\353\240=\000\255\013\275\244<\334\274P\t\205;\2314|\275,Xu=\340M\374<~\343\321=\231ji\275@W\306:L\227\231=\320v\353\273P\371\215\275\335\315\314\2753oB\275\000h0\274\220b%\274\320\031\203\275v9\033\275\200\326\n=0)I=\346\236\262\275\374\346\267\274\354\'\306=Kg\274\275|\007/=\254\353\257=`)\217\274\271\271\312\275\210DB\275\020\213\347\274Fn\242=\245\237\203\275\3367.\275\212*\207\275Hq!=\030/V=o\2443\275\370n5\274PZ\254=\177\272\253\2756\340S\275\225(o\275\204N\206\274\264XL=\304,\332\274\200\252\312=H\332\352<\3008\310<\374\250\005=\320\364\200\275\034\033\330\274\354\373\303=\225d\325\275\203n\275\275xR\251\275H\230\r<dj\241=\002A\223=L\205\227\275\350\304\000=Wi\307\275\350(\204<\000;\335\271\230`\201<Y\210\321\275\374Q\221\275\260%\251\275\000\366F;\330s\262\274t\250\307=d\334\241\275\304^\311\274\016\256P\275H\370\017<\322<\253=\0002\251\275\204\255F=\220\323\260\274\244\177\310\275\260\351I\274m1\305\275D\252\026=\2208\375\274\t\024\306\275\367\367Y\275>\264\205=\3409\317=\364\211\231\275\214q\315\275\000\3310:x$\312<x\341 <{\204/\2750o\376;Z{\237\275\320\020J=\230!\236=6\261\224=$\005\003=({\200=\014\303\233\275\224\241\273=\327t\300\2758\314\247\274~l\030\275P\002\365<@\010\247\275\220v\215\274pm\242\273x\223\026\274x\364\371<\000\030\2678\010\311.<\230\324>\275\221s\317\275ID\324\275\300\302{\274p\377\037=,\235\205\275H`(\274\310!\277\274,\314\247\274\030\3317\2744\245>=Z\035\246=\334\255\254=<\356>=\256\242\311\275\346\247\247\275\224[\241\274\344\227o=\240\377\"\273\334\233d=\3436\315\275\2601`\275\354dO=\340\204\032;\200>\303;xr\307\275.\271\251\275\032z\223=\\v\246<J\230\253=\273k\265\275\214\363\022\275\327\334g\275\336\t\226\275|\315\240=xRB=\302\014\244\275\010W\"=\374\375\026=<9\033=\r\031\204\275\350\177\215\274P\270\330<\024n\035=\376)\230=\266y\207\275\360:\300\275\221vv\275\270`\036\274\350\361\024=\nl\272=^\177\221\275\217\017<\275\004\374F=\236\357e\275P\007\206;?\376s\275\300ts<\313\0363\275\260\314\250\273 D\032;\364B\260=n\".\275x\376\237\274\230.\226=\022\354v\275\340\207\022\274\330\"\227=\000\301\234;\343\276W\275\020\261\240=\350\225\202<&3\005\275\320\034r<\372\203\227=\371\'\241\275\\\206T=\326\277\277\2750\322\261=\244\0242=\032v\261\275DL\361\274&\355\211\275\254Ji=\030\034q=0Z\214=\324\222\022\275\374I\250=6\365)\275\014\365/=\200\226p\273.\027\264\275p\344\003<\306\210\323=\300*@\273@\320g=J9(\2756\330\016\275\313Xy\275\344\377+=\334O\230=\252n\201=\300\371\037=\370T\341\274Mn\231\275|\307\222\275\220\177\300=\362\246\315\275@\"\010=\204A:=\370b\224\274\347\245z\275\214\307\030=\320\035\277\274\274?\204<`\340\262=\300\322\356\274\300\2463;\320\254\276\275gV\203\275\320p\376<.7\323={|Y\275.W\322=H;\207\275\264\303\'\275`m\r\274\320\307\017\2750\256t\275U!\257\275\371\177\261\275\300\026\371\272\2648z=f\353\213\275b\252\321\275(\311\317=\\\315\323\275\344\245\267=\200\006F\274P\360\r=\234\207\303=\020`\251=\016L\255\275\037xG\275p\240\306=\250\321\361\274h\254\333<\310y\263=n\207\233\275b\216\204\275\304\343\207=8I\033<j\336\304=\262\350\t\2756{\221\275\010\320q<\340\275\275\274\272B\306=\002f\322\275 4U=\323\336T\275`L\334\273\236Z\216\275zt,\275\360\021\254<x!&=\330\355\372\274\300z\272\273\300Z\352\273L\255\t=\250\354\244=\320\266\277;\220$\210\273l\365#=\250&\260\274\t\234\221\275\030\370\037=<\216\204\2740\253\326<TP\273\275\000^O=,D\255=\363\312\275\275*\n\220=\366A\266\2752c\024\275}z_\275\250Bc\275\226g\225=J\255\270=X\003\202\275\300,\263:\335\360\240\275|b\321\275\336~\035\275\200G\300\272{\263f\275V\361V\275K\036n\275d\362\205\275\'\334H\275r\373y\275\000\244\30590\215t<\360+T=\370\271\340\274\000\223\347<\314PJ=\354\357\374\274\260~\266\275\027\367O\275\020\000\217<\361\235\276\275\353\202\230\275F\335\312=\240\327\263;\1778w\275\334\307\267=\336k\227=\0000\021\275\350\263O=\354\022\245\275\320\371\312<u\177\321\275t\364\226<@\340\341:\320`\340;\276\366\302=\274\t\010\275@\306\227:\252\n\304\275Z?\233\275\200F\201=\272\204\246=!;B\275\010\275q<$\247n=\304F|=\232\235\270=\034~.=\260I~\274\024]R\275\3540\237<x\237#\275x\273\250<\300\340L=\000\017\014=\352d\222\275\020\036\311=\370~\n\275\021C\225\275,y\257\274D\262\200=:\261\"\275~z\267=\000\322\255;\\\207\225\274Xq\033\275H\261g=@h\221<\022\256\226=T\017\323=D\256I=\224i\001=\010\302\245<XQX=\210\2502<:\026\266=\252\275\256\275\327\357\312\275\230u\303\274(\234\266=\246\270\304=\275\305\263\275\256\335\256\275\332\245\265=\256\375\256=<jY=\371tQ\275\000Fy=\212m\211\275\210\257z<\310\320\235\274\304(\266\275=l\220\275\340}U\274|\341\225\275&O\255=\30431\275\304\220)=\376\275\024\275\214R\265\275xB\255=\250c\005=#\313B\275\030\252\376\274\256\n\000\275\240\310a<\320\221\375\274\310eH=`\234\211;0\317\212<\210m\255\275\362\027\245=\344X\215=\200+\277<\214rt=\020$E<4P\016=\304{\226<\034v|=\310\302\336<\265\256O\275P\260\032<\210C\214<\240\374\346;\342\327Q\275E4c\275\246-\234=^8\266\275\010|\002=\370Ed<\n\237\321=?\301=\275pd\212\274\330\016\216<X\2634\275LXE=\356\342\322\275\232\001!\275\221\357\267\275,V*=\212\343\223\275\264\274c\275p&\266<\016\302\276=\200\370\243=\2772\203\275v\215\312=\240\267\230\273p\027f=\026W\257\2751Fp\275\224W\262\275\360\020\327\274\220\241\314<hr\216=\340f\265<\270\306\257\274\206D\206\275\300\300\233<\2409\320\274\014%\305=\014n\013=X-[\274\010\345\255\275\265z\264\275H\250-=\226\213\276\275\366v\237\275\303\356r\275\0265\235\275\240\301\032\274\220\030h=\257\360\236\275p\233\372<\030.\320\275`\377\211=(Ru<\276\2625\275\200\301O;\320,\265=\004x\332\274 f\020\273\312\001\311=$\376\203=\300\234\364<\246v\253=\014Cx=\276$\242=(\035\335<Lx\303\275\344\240\343\274\234\233\315\275\302\034\204\275\\\035\264=d\377\300=|>\206<xw\r=\306E\323\275\300\321\254<\003\017\272\275DA\177=\370\202?\275\\9i=0\257o\275\000&\367\273~\205\207=\256\301\226=\350h\233\274Ha\236<@\273\263\273h\213\242\275Pl\336;L\221F=\374\200>\275(\035\265< \232\320<\303f\273\275\264\000\355\274@\0210=l\260E=\266\325\302\275L\206\022=J\367\014\275Tyj=\210\250\243\275\234\354\351\274D\006\232\274F\247\256=\262Z\273\275\305\3064\275\250\0169=\230-\325=\260\031f\274\276\005\260=\220|\205=\010o\370<\230&A\274\256\256\300=<\331\201\275H\003Q=\200\371\021\275l\034W=\356\367\301=`t\200\273(\320\321=1%\320\2755\320?\275j\342\233=\200\217\034\273\264\310\217<Df\316=\240\036m;\245\327C\275&\224\256=\n_\263=\021\034\241\275\022.\264=2\212\237=rr\004\275oG\221\2754\340\205\275 \2462<\314\031w=\024\010~=\004\032\261\274\320\271\004= \037\337;8r\224\274\260\361\027=PA\245<O\343~\275@^\202\273Z\333\236=\230\024\212<\210\331\266=.\265\207=\307\344\303\275\315|/\275\335\273@\275$\367P\275w&\222\275\032\230\313\275`21=\300y\335\272\231\014j\2757\013B\275\020\251\207\274\322\367\237=l\243d=\204\371\321=\274\230z=\350\377\035=\300\221\231\272\222\271(\275l\300\361\274\206\311\241\275\027}g\275\256X\246=\211\331\273\275\364\377\205\275\270\333\252\274\356n\263\275@P\274\272\374\373\267=\202\373\226=\224\"\254\275\200=\204\275\213\304\260\275o\334`\275\004]%\275\351(\265\275\3205_=\344y\277=\020V\025\274G\336S\275\0107r<F\242\260=d\207\242\2748s2=k\265\264\275\320W(\2750V\362<\232\335\264=\300\244\016=$B\\=\222\327\307\275\370\020\026=\2102x\274\345\224\232\275\343\rt\275i G\275fF\302\275\276\273\214=\024(\272=\244\341\217\275\\\322n\275\014\301%\275>\t\315=\020+\275;\340\266\257;\022\260_\2750\221c\274\250@\334<\030\3477\274\250\'\211<&0N\275\\N\236\275f\025\r\275\330\257\220\275L;\201<\230Ar=\320\272u\274r.\252=\260\032M=d\361\237= \322\022;\030iR\274\3246\267=\240\352F<P\013\323;\250\277\004\275\034\004\017=\006Y\251\275\014\"\302=\020~\027=\020sx\275t\203i=pF?<\200\325[\274\026\222\270=(\237\246\274\300\341\030\273<\365\005=\304k\232\275O\220\323\275\310\215\007\275\224%\020\275\014\031h=`\235\022\275\376c\261\275\302Y\223=X\351\305\275\034\3605=\004oh=\006\312\236=\304@H=\336#\221=\234\250\264=\014h\243=\250\\\214\275$\274\207=S=z\275N\326\275\275\244%\201=\253\366d\275\334\341\243\275\346j\216=\210\273\033=\270\261\270\275c\030\273\275\3003s\275(\211\311\275\274\321r=\234\301\324\274\204\241\200=D\276*=\364\362V=N;\221=\376\025\217\275\340o\001;\210\216U\275\034\243x\275(\321\277=\030\377{=J\204\221=\000\177d\272\240\030f\274\004;M=\344\031\n\275$j\006\275\320\354\203\274\271\263u\275\000@\203<\3304\"<\020A\242=\364\t\204\274x\331i\275:\030b\275gGB\275\200\217\266<\300\306D=\\t\014=\274\367\241\274\002\004\256=\264]\013\275\364\311\271\274\200\326\204<Xyj=\236\036\200\275X\313\036\274\214\331\302\274\370*\241\274P@O=&\346\260=\026\355\220\275\016X\206=\224/\026=\3408?<\234,j=X\203K\275\331;\314\275M\224\325\275\224_\263\274j\254\227=\340\206\013=\354I\236=%\225\276\275\370\177\007\275\030\361\023\275\256A\204=\267\312k\275\350i\251=\000\351n\273n\212\216=\366\341\201\275\217\325Q\275lY\323\275\342\247\224\275\234\365]\275\370xv\275g#\241\275b\271\254=\332;\000\275\224\355\304=l\337\251=z\352\241\275\310\246+<\021kE\275\\[q=\000\326\355<:\036\277=\350\253\343\274)\030\217\275H\253\210=$\342\257=\224\306\031=\000\245\207\274\364\226\002\275`\204@=%\032\230\275\022\333\300=4Q8=L\033\033=`\220\257=\221\263\215\275\354\273\205<\204\217\265\275\240U\n\273\340\254\256\274\324s\t=\370\001p\274),\277\275T\302I=\020\275\010<\300\252\244:\240@\005\275(\014\001<\233\rL\275\342\353\266\275d\215a=\374n\324\274 \335\302;\277\267\304\275\304\375\266\274\200\362\303\2759\256\310\275\204\347i\275\000\206%=`\365\255=\364l\321=R*\t\275\014X\263\275\300\326\276\275\200;\217\272\3747\200\275nQ\301=\000]\237<\250\262z<\343R\305\275\274\036\245\275Xl\345<\230\326:<b\177\224=\350]\022=\330\250\372<\300\257\325\2748\307\246=8w=<D\221\r\275\335tC\275`\265\235=\300k\250\273?\204x\275\344\241\262=\260\265\355\273\014\361\245<\350\374k=\330\255\307<8\247\014<>u\257=\264\233&\275\374C\027=\210\345z< \002\236< \211\301<Pj\214=\242T\223=\300\025\";x\3307\275\024}\222=\330\352?=$\222\230\275:i(\275\210\017\207\274\260l:\274\224\035\211=\022B\240\275\020I\255=\254E\262\274\030\232\244<0\257\274\273L\224\201\274j\300\202=\250\210\344<\344Nh=\303\344\262\275\2000\305;\310.\341\274\252\230\213\275~\256\211\275\023\251p\275\344C\200=\310\203\253<\000\201\261:\3507\353\274P\221U\274\270\246\205\274\364\340J=^\371\257\275\264,\226\274\360\333\247=\030\336\360<(\212\304<\244eV=^\302\317=-\335j\275\220B\242<\220\037\224\273\t\241m\275%\364L\275\210P\013\274\226w\273=JX\320=\010\213\321\274\330z\257<P\245\024\275\020,V=\036\267\205\275\000Go\274H\253\230\274\350\216\263=\254{\264\274\341z\305\275\245G\320\275 \346\304\273\264e\263=\352d\234=@\327h<&H\277=\034\375j=\216P]\275&\t\020\275\362/\255=\350p\301<l4e\275h\345E=f\246\261=\030I\276=\2445z=\000\356\207\275\224g\010\275\276\252\240\275\324\327\260\275\220\321\035=\204Y^=\224\345\211\2758S\362<\\\241\221\275\003\246Q\275\260Hv\275\344g\006\275\271\032\204\275X^\004\274\000t\303\273\225\224\320\275\216\226\231=[\235\306\275BX\213\275\200m\212=\030\2314=f\263\203\275$W\201\274\342S1\275\240\237S\273\324~K=D\221\300=(\224E<FB\022\275\004\n\352\274d!\255\275\017\260z\275\304<\324=X+\274\275^\036\245=\350\304u=T\331\365\274\320\353u\274?\333\213\275\260\221\244\274\200\0221=X\263&=4\033\023=`@S=\333\267p\2750\262q=4\342\251=\264\'v=\270\254\374\274\366\317\254\275\360\200=<\243Sq\275\022\021\265\275*N\240=\314$\255\275\310\321\211\275h\340\177\274\330\177\334<\210\373\327<F\316\312\275\230\224\253=\214}8=\010o\275=PS\206<\377\276\267\275\270hS=\nD\306=u\330v\275\302\210\253=\340\212T\275\320 \205<l\301\211=\240z\217=\2407\335\274xk\271\2740l\016=\000\225#:\000\236O\273\232\363\254\275\330sF=P\341\253<\322_R\275\\\350;=\200\211\267\273\230;y\274\234\253\246\275\3709\323<\030\205\225=\270P\"<\005,\317\275\021g\222\275\310\230(<t\231_=\016\001\237=\314\2366=\250\305\034\275\244\3240=\256\366\223=\033\213G\275N\025\203\275\020\367\177\274\320\346\252=\207\340Q\275\000u?\272\023\255l\275 \351o\273<e\000\275HV\r\274\004\014\017\275X\377\314<\024\235T\275V\241\231\275^\301\247=?V\214\275\260\323\376;\264\026\034=t\004\370\274\222\244\225=\360\211\325=pc\302=2\261(\275:\342\276=\006\355\305\275o\340\312\275t\374\262\274\020\234\311=\332Q\206\275\242\355\300=\360_\370\273\356\314\324=\270\252\377<\332\347\232\275Pd\211=\260z\225=s\306\235\275\210\336\275\275\014M\365\274\014KN=\000\207n\275@\221\266=\0008\230\271\350>\221\275\310l\303=^\034\216=\350TS=X\256G<\216\256\250=\030%\272=P\264Z=\362R\256=i\n\221\275\314\034+\275\350G\376<\274e\254=\370cH=\352`C\275\312\025\014\275P\231\303\274@\350\225=\000J+\271\370\200e<\260\343T=H\016p\274[\301\261\275\350\034!=\0007\305\272\370t\355<Pn\322\27424`\275h\347\265=s\301\260\275<\316r=0\310/<\324\033,=\265*.\2750\214\315\273\022\2647\275`\206\263;\360\251]\274\304%G=$9\252\275\304[\274=8,G\274@n\351\273\250\016\304<\320\370\303\273\333\234\313\2750\027\223\274CJK\275\350/\244\275\340L\'=\0245\216=\371\3507\275G\231^\275\342\206\034\275\234f\236\274\320{\262;\021\3443\275B\261\250\275\354\215L=\240\203?;\304\335\250\275\000\035\371;,B\221<\010\214x=\227\3147\275\250`\212=@\263\326\274\367\373\224\275J\022\202\275\021\022\250\275d7\263=\270\370\231\275\260\024\"=\227\362\314\275\243\245\304\2750\030\264\273@\234\355\273\222\377\256\275\247\374b\275R}\205\275\030\306\260=\004\374\224=\321\256\236\275\350\316\344\274-\\\313\275@\343\375;!\203\230\275\374Xu\275\020\254\256=\372?\210\275lU~=\016\220\321=\037\337\305\275@\213\313<zd\314\275\340)b=\273\244\243\275\020\017\004\275\270\013)\275\221\333\320\275^5\227=p;\237;\230gW=8\tD<\230\006z=\314P\253=\301\362\320\275p\311\321\274\374\363\216=H7G<02\222<M\216\220\275\277Y\272\275\320V\022\274\371\221\241\275`\275\261=R!\211=\240\245\230\273\230\305\350<,\336\202\275\300?|=\300]\367\273\000\216,<\264\255\204=\314\2556=\010\220\331<\266|\246\275\004\255\257=\212\226\244\275\300=)\273\234\273\276=2\235\213=!\331\204\275I\364\304\275\226\320\321=\200\240\326<8\247\303<)\024\234\275\250\362\364\274\014\216\223=\000\324P\273g\364\240\275v2\324\275Pl\304=\004s\266\275\234\340\005=4\355V=\232F\203=NW\270=9\232\275\275\250}\020\274\3004R\274\000\312c<z\250\321=,3\323=\230\351\275<`\006q=X\221\267=\322\367\003\2758)p\274\264%\250=H\031]\274\362\334\036\275\364\330\260\274l\202\227=\220d\347\274?b/\275\030cP=\010\036\216\2748X\361<<n\226\274\321%Z\275\202\003\263=\224-\233=\364\203\203=M\002\300\275hV\245\275\313yj\275\\\007\305=\256|\303=\\\023\315=6\t\243\275\266D\314=\014;\036=\354[\326\274\310\301z=h\256\275<\260\007\340<\206\364\212\275&\3652\275\340\346\317;\367\264\226\275\260//=6I\231\275n)\246=\270\3358=\340\210>=H_\236=\344\352\213=\310\361f=|8\023\275v\305\313=.\031\320=B\264\305\275\204\tE=&\177\263\275{\226\304\275\327ks\275\231I0\275\320\243\013=hK\027\274\230CC=uz\266\275\010\336m\274\233\274:\275\232\310V\275\n\255s\275\274\217\263\274<8\013=\002?\272\275\000\334\314:\260\034%<\014\246\002=v\010\204=@\1775;D\276\207\275\206n\274=~\234\021\275\335\333\322\275\200w\002\274\306\212y\275|+o=\244v\245\275\330\233\014<\364\247\023\275\3001\307<\310V \274\223 T\275V\246\320=\316q\240=\235\207\257\275\010\036|<8]\026=\354\226q=\256-\305\275\230Z\013=\177,p\275:\331\307=\220\321\233=x3t<@\254\000\274\350\210\244<\020\236l=H\241\257<I\3046\275\3203O\274\314\246?=\316\314\227=\024\254\340\274\200@\256<\000\326\304<X8\031=`\201!\273\254\365\365\274\274!\202\275\374Q\302\274\220\244\214\274\002{\025\275\254l\276=\250LV=\220-\330<\340\260\276\274\300{i<BX\256=p\326Y=\277\2617\275\364\326[=\034\373\260\274t\361\224=\240\261\367<\244|\315=\330b;<.\003\307=\222G\227=f\017\321\275DS\247\274\020u\243\273\260\340^=\264\256\206<p/\307\275\270O\233=\330B\314\275\250\251\307\274\224\275\320\275T\230.=P\241;<\234\372w=\2142w=\202<\r\275h\232^=\200\010\272=\360\014\304=\360\270\207\274`S\234=\307\224\264\275\300T\334<\344V\033=\245\373\275\275\2104b\274\034|P=\270\352\200\275dp\207\275H]\366<\374\232B=\310\306+\275\004\316\251=\000\306\275=\332J\301\275\2007\242<$?\224\274\300\222\332<\200\253\024\273\244\\\003\275\214\324\315\275\300!\312=\262\200?\275\276\342B\275\034\203\234\275c\244U\275\230\273\304=\002I\215\275\264\032\316\274\350\253\306\274\254\361J=L.\313\274\000\351\232=\360yq=\000\234\211\274\"\343\203\275\240\350\025=D%\224=c\317\217\275~\023\315\275\300\232\202=\306\203B\275\214\272\264=\274;\237<03\241=\230\224\244\275cV\262\275f_\237\275t~\204\274JI\242=D\351G=4\334\300\2752\202\322\275\351\"\325\275@\366\320=\000\340\034\271\206\310\241=\340\356\r<9\253\253\275\300G\010=2V\000\2756\267\273=\230\203\265<\320\227\264\273\370\034C<\275\034\222\275\026\034w\275\266\022\201=\000\353\231<\234\260\223=\310\341==\014F\033=\370\322(<\200.\004\275x\357\025\275\342\272\214=\206/\004\275\210\231\301\274\200\231&\274\200x8\273DV\264\275\\S?=\304\206\002=\270\341\214<8\300\241=\364\234\243=\032\031\263\275\034\205\232=\334\t/=7z\304\275\3601\261=\000\326f=\240\265Y\274\360lZ<\346c\274=\016M\225\275\270\317\002\275\010\n\r\274\360!r=u\234`\275\003A\253\275uW\241\275\022\334&\275\314<n=J\274\304=\205Yj\275\010\212#\275hH\262\275\310\363\235=\242:\304\275d\373\235\275\260M\306=4\263\235=\030\242\331<\300T\210\275\002\313\013\275h\223\237\274\310\017\204=\022\274\270=D\346\303=q\230q\275\020M7=\274\240M=\371C6\2752\307\211\275\002\376\275\275\226M\263\275L{\004\275\014g\017= \017\322=\274jF=\240\334\246\274h,\254<5\345\273\275\305\375w\275\224x\n=\216\206\250=vi\006\275X\032F<\326\251l\275H\r\265=\214w\263\274A\242P\275\215C\302\275\220\375\330<l\345\000=\332\377\253=\350oy=\rQ]\275 \366\302<\206s\255\275\344\034\210\274\210\226\315=\274[<=\226\356]\275\360\206a=HX\356\274/\024\272\275P\211\371\274\216\343\206= Q\217\275\344\030\017\275\240&\357\273$\216-=\224\257\330\274P\314-=\234\240`\275fVv\275\334x\311=\325?\257\275\327+M\275\034\213\236<\374>\313\275\261\3121\275$\354\262=V`\315="
      }
    }
  }
}
node {
  name: "sequential_1/conv2d_1_2/Reshape/ReadVariableOp/resource"
  op: "Const"
  attr {
    key: "dtype"
    value {
      type: DT_FLOAT
    }
  }
  attr {
    key: "value"
    value {
      tensor {
        dtype: DT_FLOAT
        tensor_shape {
          dim {
            size: 16
          }
        }
        tensor_content: "\000\000\000\000\000\000\000\000\000\000\000\000\000\000\000\000\000\000\000\000\000\000\000\000\000\000\000\000\000\000\000\000\000\000\000\000\000\000\000\000\000\000\000\000\000\000\000\000\000\000\000\000\000\000\000\000\000\000\000\000\000\000\000\000"
      }
    }
  }
}
node {
  name: "sequential_1/conv2d_1_2/Reshape/shape"
  op: "Const"
  attr {
    key: "dtype"
    value {
      type: DT_INT32
    }
  }
  attr {
    key: "value"
    value {
      tensor {
        dtype: DT_INT32
        tensor_shape {
          dim {
            size: 4
          }
        }
        tensor_content: "\001\000\000\000\001\000\000\000\001\000\000\000\020\000\000\000"
      }
    }
  }
}
node {
  name: "sequential_1/conv2d_2_1/convolution/ReadVariableOp/resource"
  op: "Const"
  attr {
    key: "dtype"
    value {
      type: DT_FLOAT
    }
  }
  attr {
    key: "value"
    value {
      tensor {
        dtype: DT_FLOAT
        tensor_shape {
          dim {
            size: 5
          }
          dim {
            size: 5
          }
          dim {
            size: 16
          }
          dim {
            size: 120
          }
        }
        tensor_content: "D\215,<\236\261\230<\360;_\274>o)\275` \327\272\031\355\035=\214-C<{\202\324\274\000U\355;x\300\313\274\036C\342\274@\352\023<<;\032\275V\376\266<@\'\315;\320\".<\320`\300\273@\364C\274Wg\t=(x\376\274\302\233\375\274*\226\357<\374oc\2740Y\024\274ou\025=@J\026\272\361\013\033=\202\301\217<\240?\246\273*\206\021\275x\231\034\2750l\200;\240r2\273V\323\256<:m\014\275\367\004\014=\324+\r<@\271\320\273X\331\341;\373G\010=f}\003\275\264\r\r\274y>\035=&i\362<\240x\210<\223\360\305\274\300Z@\273\337\230\031=\002\375\342<\342\030\370\274Y\\\254\274\340\240\331:\266%\317<\270u\374\2746\345G\274aJ\002=\036\332\254\274\226^\260<\326,\310<\002\242\376<w\310+=\035\004\027\275o\001\014\275 \243I<@\030\r<\2020\006\2750\230Q;\312\2574\2742\030\334<2\215\016\275??\355\274\0314\006=f\004\310<\240<!<\304\2304<\246\013\334<f\237\307<Fr\023\275\253\353\021= \323\303\2720\235\001\275\"\212\342<\200\007\317\272R\303\035\275\330o\014\275\305W\030=\310\345$<\254\370\'\275\307%\340\274+\034\273\274\320Y$\274\315\004\033=D26\274x\010\215\273\234\332\244<\312-\274<\226\371\366\274\220W\014\275\340C\326:\220y^\274B\313\314<\321\277)=\360\3330<D\266_\274J\3303\274\034\261R<\271\220\235\274h\030\226;p+\320;\236\252\322<\375\306\n=\352\016\265<\275r\033\275\220g\026\274O\241\031\275\005Q\'\275y\273\023\275\374\366z<\355\300\002\275\330\t\275\273\240\327\230\273\231\226$=\nAG\274XW\207\273#/\234\274\270=F\274\000\353\037\274_\276\025=\221Y\321\274m\007\342\274\234\304\017<\250\261\237;\356\302\252<l\027\270\274$\023\232<\255T\007\275\000\327\334;\200l\267\271\3450\276\274\260\345\353;b)\354<\032\256\326\274\367\307\020=`\305@\274&(2\2745\357\036=w\202\026\275\260\034\242\273\206\226\261<.\274\321\274\262\324\352<b\022\271<\344o\000<\374&\204\274\334k\266\274\374j\375\274\351:\302\274z\352\263\274P0\241<\216\227\227<\020\212\310;\360\000\326;E\370\325\274\230n\305;n\344\347<HIB<@\250\324\272I9\026\275\312L\361<\000HX<dF\000<\224\313W<b\335\365\274\200\263\240;g\370\315\274\300K\'\273\364\301\242\2748\032\336;\336.\355<H\213\214\273\365\325\031=z\367\262\274\3200\010\273\333\241!=\020\037d;\320\236D\273\002\031\374\274\270\256\225<\303w&=\277\304\204\274\204\025\n\275\034\206u\274\'E\010=,\013*\274\000\374\225:\224\244\002\2743\332\024=\302#\260\274\366f\026\275\241\342\033\275\010+\026<\000\372\247\271\030\017\021\275\254\347\036\274De\005\274,Q\t\274\377R\344\274\036y\201<\275\307\377\274@\374v\272+\257\003=\013\313\211\274 \363q\274\234.s<0wi\273\303\001\364\274\354/,<\236\202\342<\2621\235<\323\373\233\274\352Q\371<\221\313)\275\006\020\006\275\224\231Y\274JB\355\274\232\243\006\275V\247\360<\323\320\016=\002q\355<XB\206\273B>\367<>\272\356<\220\203\346;\346\204\230<\276\007\332<$\200y<\310$q<`\321:;u\350\017=\000\265\365:\212.\013\275\306\362\324<\267\335*=\243%\032=h\357W<\020.\330\274\013>\005=\310\201\207<\340K\244:\340\376\027\273\317\345 \275\002\236\220\274J\205\254<\342=\351<\022T\306<\200\340y\272\270\316\246;j\233o\274f0\361<\214\242\300\274\1772\202\274\221\324(\275\276\255\326<,\226\022\275\237x\213\274\243\323\207\274\303f\027=j\202\243\274T\360\031<\257\024\247\274\337\014\032\275\262\274\333\274\370r\231\273\300u{:\202]\307<\241c\264\274\270&\214\273+\211\255\274rd\202<\324\314\363\274\340Di<h\377\327\273\027\274\t=J/\315<\336Q\362<\017\371\006=P\314\010<0t\342\274nu\360<\232\271\227\274\210J\272\273\000\222\314:XkD\2749\260\007=\213\203)=\340\331\035;@M\341:\240g\203\272\376\362\372<\203\'\031=\270m!<`UJ\273\371\224\004=\370\230<<Tq&<\216\202\315<\005[\005=[\023\223\274\026\240\r\275fk\322<\262\216+\275\354\256\363\274\351\322\025\275+\223)\275\027@\231\274\342\363\260<g\274\300\274`\337\026\273\226\210\365<#\224\030\275\276\030\"\275\212M\033\275nb\232\274\n\026\264<\344\rj<\230\242m<\371\231\036\275\217{\034=Fy\033\275\034\240\211<\372\245\006\275\0000\2117\240\341\332\274\340\275@;J\\\325<\203E#\275B\307\330<h\367\207<\300\216\322\273_Q \275\235\211)=`\301\223<b\262\366<\356\037\204<\340\356&\275\332\315\375\274\020I\356;j\034\277\274z\025\344<\334\236\004<\200\346Q:~\337%\275\256\224\034\275\330\023\274;jT\331<\276\261\321\274R\014\022\275\232\337\375\274rD\220\274pOd;:?\270<\340B\341;x%\037\274n\211\305<\251\343\"=\n\024\352<\345\346\300\274\032(\266<-\230\036\275\204\234c<\325\365\030=y:\027=\2406t<\220\267\002\273\263\343\020\275\254\002=<#6\345\274o\362&={\352\007\275\216\002\260<\3004\362;&D\367<\213l\035\275\020\355z<A\240\003\275<\303u<vZ\330<\330\334\320\274l\305\r\275\200\010\270\273@\300\003\274P\026\033\274\260\201-\273,\256E<\000W9\271\033K\032=\036%\350<\356\300\352<\274\376/\274\021F\031\275\212\215\303\274R\024\355<\366\224\332<\324\322a\274\252\331\335<\250.\301\273f\243\251<\024\000\246\274\'\021)\275\322\014\260<\020r\246\273#\017\370\274\200\276\005\273H\345\357\274\\f:<\266\204\361<\006\027\237<pO^<\034\274\331\274\343\322\034=\254\323d< \027\311\272\020A\022\2752.\377\274#\217\020\275|\210(\274q\251\207\274\362)\006\275\372;\367<\244\312\020\275Ps\204<\334\220(\275\256\277\334<9\205\017=QZ\363\274\030E-<\314\313}<w\370\002=q\205\035\275\340Yx<\244\254\264\274R\365\334<\235z\'=4\344\016\275\215\352\246\274\315\023\004=\0203@<\300?\315:`\0213<\344\3641<\010k\356\273\000\266O\271\020\364\214<\316`\340<\240\311\205\272~\262\372<\267\324\350\274\272\240\360<B\340\246\274\000\021\025\275\304\207(\274\374\")<\330\317\377\274\370\245\267;\345\343\022=+\202\016=\312.\362<\240E\211\274\276\344\263<P\231\334;\372g\373<\314-L\274\220J\027\273\367\303\276\274\002\361\341<\264\017\"\274\265\361#=\230\210\322\274\312\221\352<\036\007\361<T\003\346\274J\261\252<\034\201\003<\336&\"\275*c\271<l\353Q\274\230\245%\275\313\251\020=\000,\265:\271V\364\274\360\314\025;\360\323H<\222\203\365<\300\tO:\200\017%\274\372G\260<\007]\325\274\022\210\350<\314yt\274\220\020v<\336\r\271<\220\257\234;2\026\244<4\325\227<[\322\024\275l!\265\274\251\210\023=\340\312\255\272\344a\006\275\310\215*\275\000z\316;\034\377\017\275`\330e<\277T\304\274!\037(=<\004\"\274\331\005#=\352I \275\232o\266<\r\"\035\275\371T\010=~\023\004\275\277X(=d\337Z<~?\326<\255I\020= \267\017\2748\rc<\212t$\275a\207\000=\376\334\227<\024m\232<\227\034\265\274\204V\001<8<\013\274\220b\321\273\005\031\353\274\200\024H\273N\221#\275\2749\025<\304\226)\274\220\222\010\273\344\241\000<\240\372\321;\247\245\306\274\2561\320\274\301j!=\215r\214\274\277\252)\275\202:\223\274\000\362z\272\212^t\274\014k\t\275\246$\310<af(=\023V\"\275\377\221)=\365\346\'\275\326\334\237<6pO\274\010T\324\273\265\247\343\274\246z\307<N\310~\274\203\221\214\274\254t|<\224wp<\264\234E<\034\330\245<\220\347L;@\222\373\272t\302U<p\312R\274\221\335+\275(\254\330\273]\342*\275\211+\027=H\335\013<\260\262\345;\014\351\007<<\277\017<\033\337\206\274\372\354\323<0\231\303;o\262\r\275\340,\177\274\2765\274<\"v\313<\213\211\000=ft\247<\014\322\'\275\340C\213\273u\205%=\035L\300\274\277\\\020\275\016\370\306<v\241\366<\273\253\206\274\240\212\023\273\270\243F\274\336\273O\274=>\200\274\343q+\275\t\\\016\275\346J]\274B\254\321<\321\315\014=L\356\353\274F\037\210\274U\226\026=^\344\010\275\330o\315;\020\366\205\273\235=\026\275\000\355.\272(Y\305\274\232\376\354<\272\271\226<\310FT<\350\021\303\273,\257X\274\274=\016\275\320\207\030\274\016Q\275\2746\352\311<\364_\320\274\000z\272\273\352\371\226<\000\025\247<\222W\345<\336\353\343<&\320\276\274 \373!\275Pc\233\274\016\325\350<\364\356Q<\252\177\317<L;\325\274\240\207\246\273N\021\324<(1\325;\216\267v\274\314h\260\274\332\260\013\275\1772\235\274\340\275\311\273\006\343\266<\225\324\014=\321\344\031=B\250*\275\274+$\274\213g\340\274U6\016\275\322\233D\274\007H\233\2748\331!<\002\317\003\275=\320\005=\316]\331<\350\326g<L\321\372\274\330\003\324\274\244\025\035\274\324?#\275\302r\034\275\\9\020<\335+\226\274\246\342\216\274 \273\037\273\335,\244\274h\206\n<\225\347\022=\250y\237\274J\376\347<`\245\252\272\326\324\251<|\303:<\200q\331: \037};\307\256\023\275\"j\205<\230\311$\274N\222\221\274\200\014K\273h\250\227;\250\315\002<\300\003\024;5\035\000=R\"\203<rL\311\274\032(o\274~\037\272<\036\336\277<\255D\003=\200E?\274vB\205<\020\346\266\273\336.\233<\241\244\t\275\3006\201:\300\265q\274\305\235\013=\303;\315\274\311\217\016=w\333\220\274hG.<\210#\341;\300p\307\273Z\244\273<\266o\340<N\233\372<\243\027\'=\312\261\264<\306\236\323\274\270d:<f\355\227<\325\252\031\275\221\255\023\275\303\274\276\274\256}\255<\267\351\023= =P\274\240\241\332\272\310\305\341;V\200\353<\277\255\237\274\225\005&=x\202\350;\255\374\302\274X\250\345\273\2139\251\274\331<%=\354AC<\223\030\207\274\200\026\203\273\250\336z<d\2047\274\3623\323<\246\0317\274\025=\023=v9\360<\332z\355<\364\364\025\274\334\r$<R\224\332<\024\271d<\234\314b<*\322\254<pi\242<\200`\025\275\006>\246<;\270\032=\024^r\274\330[\277\273\226\325{\274\200\343\014\272\361c\001\275\010\274\036\274P\243\214;\260\203%\273\236g7\274\026\333\277<\300\247\016\273\272]\352<`\007\323\274\240\330\334\272\337\177\027\275\247\017\234\274\302\033\373\274\272\205\002\275W\336\223\274\266h\340<\223\260\003\275/\370$\275B\216\342<\376\345\t\275\364q\230\274_S\031=P\326S\273\200\313\352\271\253\245\r=\324\0377<\231\"\014\275\351\363\031=\250\266\036<0Nz<N\'\231<\003i\217\274\2769\267<\220\\^;\252\206\337<\031}&=\200\'\363\271\234\350\223<\251X\003=~E\252<\305\333\000=\201\202\263\2741\254\006=\331\002\020=\214\272g<\300\006\264\273\260\257\322;pD\242\273\223\343#=\037\364\017=\301\343\002=\245\324#\275H\215\367;.\371\225<\177\310\035=\274\203\'<F\260\306<\256k\352<|l\362\274\254\346\317\274\340\006\320\27268\205<\330\373\032\274S\346\020=\317j\200\274 \372\344\274ho\321\273\347\020\031\275\020r\373\274\264Xs<\3279\001\275@\355Y:\016\362\364<\327\026\"=\360G\211<\256_\317<\237\250\013=\330tl<l\300\006\274\243\265\036=\004\027)<\036\354\022\275s+\033=\351?\335\274\016D\266<\270\317\235;\304\243A\274\262\374\334<3\235\354\274\245^ =\300m2\274\372\247\340<s\260$=n\374\002\275G\372\005=>V\211<\220\267\005<\n\375\325\274:.\364\274\320\020\314\274Te\234< T\202<\270\030\270\273\301V\314\274Vv\207<\300{}\273p\222\333\274\36444<\344\363#\2740\227f\273\257\332\311\274\201\326\005=\340\312\n\274\034\205/\274\370\305\201<\340_\r<\2561\002\275\311\371\021=\207J\014=\022,\354\274\024\2645<\nJ\275\274@c0:\200\017\252;D\'e<@\241s:~\375\346<\030_\340\273@/\006;\220\230a<w=\n=,\005\354\274Fn\261<\273\364\026=\006n\362<m\021\254\274\302,t\274(Q\346;h/D<\336\305!\275\'\347\036=\"\361\352\274\264l\223<\331\235\022\2758\206\\<z\217s\274\244\202\334\274x\"\211<\227\224\347\274a\t*=L\373\324\274\333\037\003\2750\037\277\273f\246\271\274\020)\340;\024\307%<(a\375\274p\000\333\274\242\2022\274\272\024\312<\300\256P;\n\2075\274\005~\247\274P\315t\274i\025\262\274\200|g\2748Y\326;[\227\324\274X\204B<\334uj\274\036\344\331<\210\007\200;`Eo<\266f\362\274\264y\232<\313s\'=\240\216\024\274\244l\225\274\2000\377:\326\362k\274\354`$\275{\277\t=\231C\r\275\260\017\211;$\234_<\306\331N\274\313\256\277\274\326\001\334<\030[\277;\311\201\016=\202\265\006\275H&\004\275\314\277/<\371\344!=\264\270.\274\244\353u<\222i\033\275\'A\331\274v<\366<\232\246\247<\254;\024\275\300W\352:\347y\000=@+\305\272\000=\320\274\350;\311;\266(\264\274\242A\364\274\360\252\231\273\267&\005= \006\314;\350\332\241\273P\272f;\272\033W\274\000\240\2249>\363\314<\266\347\304\274e4\006=\217\372\006=C\022\003=z}\333\274B\362\304<{\274\010=\016)\350</\n\242\274\"I\304<\305\245%=\256\306k\274\3770\035\275~\325\252<\010O\020\274,;\005\274\030L\376;\3349\216<4\225\021\275\2554\212\274\240\231 ;v\263\202<\260$\205;\032\233\350<\222\354\272\274\327l\246\274\266\333\225<\320\024l;FXz\274\302#\367<\000\333^\271\364\000l<l\3569\274D{\025<\346\3778\274\240\"{\274@\227\267;hZT<2\013\273\274^\250\242\274\017-\014=\362\017\357\274\272\234]\274f\260\316\274\023V\273\274\314\300\t<hE\020\274\006\313\363\274Hw\231;\207s\026=`\372B;\3604\312;\024\214k<\000\336\3579\250\214\004\275\020#c<,\234.\274\304\264\236<|\027\017\275\2035\252\274\212:\276<\220\2258;\027`\006=\000\205\267\274D\307\"\275\0064\362\274\220\206\006\275hH\370\273\262by\27499\230\274\352\220\027\275P\306\034\275\035\345\361\274\\^\024<\t\242\025=\216\2220\274\303D\004=(8\255;\300\2151:\240/?;Bn\361<\230f\226<\214\373#\274\266\006\260<\356\245\274<\200>T;\260\323\231\274v/\304\274\330\333\216;\360\352\241\273\335u\223\2746\220\333\274\333|!=\252\371\255<\307\036\'=\272\212\362<`\020\035\275I\367\033=o^\023\275\260\270\306;\232\322\247<(o\335;\315\n\'\275K\\\017= Df<\014\264#<#\314\245\274@\0140\274\200\331\333:\320r\020\273\240\352\336:\341\007)=\033\030\000=\200\032\334\274`\254\241;lK\276\274|q>\274;}(\275\312~\377<S\177\023=0\2605;\204+-<\004jh<(\013\003\275`\240\211;tb,\274\030K\001\274`t\226:\177E\303\274\312\376\010\275\3472\024\275@\235#;\214\365H\274&\343\271<\030\205\r<\013\307\014=p\026S<\200\367\2229\3540d<\357\357\002=\340\310e<z>\337<\\b\005\274\360Q+\273\024\\ \274@\235\276:\221\036\262\274\000\321\306:\306\006\264<\244>\013\275\263\350)=\301S\024\275\004\265V<\204G\366\274W\350\310\274&\236\324<e\323#=\032n\240<\324\347\016\275\016{\301<\322\203\366<\312\014\327<a<\022=\273\010\013=,\271)\274\2022\262<\240\372\366:\300\024W\273\2057\266\274\275M\234\274\332\323\261<P\0041;g\215\'=\250:\005\275\010~\341;\303\032\017=\317\271\264\274\020\264H<\227\342\331\274\211\267(=\212n\014\275 \2433;\206/K\274\301\270\273\274\364i\017<\326\217\004\275\000)\005\273\256\371\232<\240\343\223:(\177Z<x\345\315;\346\032\220<(\"\'\275\251\214\'\275\300\333\366\272\370\221\253\273\3040\246<\"\304\246\274KP\213\274\036G\305<\367\030\035\275\010\022\022\275pM\200;\000r\332\273\014\371\203<\036\244\337<\3230\310\274\016\t\006\275.\373\353<<\234R\274f\221\267<\230\305\335;\253\"\021=\270\257\032\274\003T+=\350\313\207\274\202s\347\2748\"\311\273\255\354\037\275\360$X\273p\225\021\275\275$\356\274\330\371\230;@\\\"\274\266\033\336<\201\234\036\275j\345\014\275\252u\244\274\260\2420\273\325{*=l\006f<\366\2710\274\270\007\341;\340:\373\273\334\320\216\274\206\273\274<d3\001\275\322\244\262<bot\274\020i\233\273\330\320D<\253\310\335\274\260!&\275\000z\3268\371\361\033=\365`\004\275P\370U<\202\307M\2743\237%=\214t><\004 G<\215\210\020=^\033\362\274^\254\350<\325&\000=\300\270\021:%\201+\275Ya\001\275\033\231\030\275\200>\323\273q\327\'=\010\356\331;\010?\311;\362\031\275<\246\023\224\274x\322\330;H\272\307\273O<\266\274<\326\374\274\300\315t:\246\001\371<\330\306\373;\312\342\326<F\302\234<(\310\304;\024R\372\274\346\033\200<\312\243\265<\331\226\211\274\010\274\322\274|\360\013\275\270\0224\274\347B\032\275\240\276\n\273\246\364\361<\014!\026\275\376\206\374<\354\246\007\274@\322\256\273\241\257\004=\200\025\351;ki\330\274\244\203/<Y\243\024\275\352\370w\274\370E\355\273\347(\263\274\263\006\272\274B\343\247<\347E\241\274\340.\333\274\362\n\036\275\255\220$=\272\372\235<\'\022\030=0\327E;d\320\230<z\342\314<\310\205\273\273\262\261\355\274\372\250\270<\376\021\016\275\210\214\020\274\204A\002\274\205\213\023=~r\365<\005\255\007=\360\275\014\273wM\035\275\310\345#<\250\231\346;\256+\327<@\355\350\274\306\340\263<$\330G<\323\006\037=\036w\263<\332I\360\274N\010\"\275\222 \223< ~u<ui\'=\233o\344\274\340\266u;\230k|\274\016\311W\274}v\322\274\252\364\313<\232\210\002\275x\340\204\273M\003\'=\340\000\250:\037\363#\275P\205K\273\021\340\031=*y\247<\215f$\275\370\303\370;\312r\022\275i{\254\274\347\210\026=@\031N\272\3202\377\273\240\273\337\272\000S|\271.T\333\274\337~\017=\nx\350<p\005\365\273\341\207)\275\'\375\021=\220\022;\273\310\036\000\2745\\\013=\345\352\'=L\367&\274\366\004\201\274\333\217\021= \337\217\273\345\262\020=@J^\272\006\260\272<_\030\350\274\305F\'=\"\322\316\274\2140l\274\266\375m\274ND\244<\213\264\014=p\002\321\2738\223\007\275\236\207\217\274\200\227E\273\010J\220<1\335\016=\3257*=\270\010\211;`w\253:\315D\022=\307\024\031\275y\334)=n\347\347<fG\343<x\267\214\273Nx\331<0&\201<J\300\214<4\324\001<\210\337\240\273\2679)=\214\230\006<\0308\230\273\221B\001=P\347\016\275\006+\264<T\354h<\001\003\022\275)J\031\275\030s\206;\300\356\216<\\\205,\274\306\327\252<\370\263\306;J\321\200<qY\035=\030L\365\273T\260\002\274QR\273\274^\274\352<\000\373C\271\232\000\034\275\327\301*=\006Q\256\274\314i\242<\302\333F\274\203\250\213\274\324\272\242<\315\205\034=r\355\220\274\007a\311\274\022\240\324<\226m\377\274\013\317\033\275\340\372\370:9\265\"=\242\272\351<\350\247!\275\260\274z\273(|\366\273\230\360\306\274z\221\202\274\002DY\274\276~\361<vr$\275\220]R<H\035S< \336\235\272\374\3028<\200\'4\273\267\177!=\320@\231\273\250|\373;\342\202\275<E\035\256\274\216X\235\274EM\247\274\300\270#\275p~\207;Wn\000\275\002K\203<\237\315\020=F<\034\275\026q\356<\242\030\250\2746\361\026\275^\250\330<\370b\035<A\037\210\274\260^\036\275`\343\177;\233\315\246\274\026\352\277<,\022\202<h\022\025\274\315<%=$\307l\274\024\256d<\224\275\366\274\352\317\277<rW\324<pc\373;\\Z\026\275\260L\333;\360_\307\274\037)%\275\200Mk\273\014t;<HtU<t\375<\274\212\310\343<\360\275\207\273\037\301\026=B\344\320\2744\304\266\274\233\246\323\2740Y*\275^:>\274$}\300\274$\242k<:\242\257<\000g\366\274\336\363\023\275\"\375\265<\277\331\r=\230\302\324\273\005\227\037\275\224\312F<\364_P\274f\351\325\274x\244\230;n\315\250< ?\273;\316\013\205<]\013\026=\210#\205;\302;\236\274\314\356\005\274\333\200\366\274\344\010\350\274\213\375\203\274\032\306\336<\220\t\344\273\356\323\245<\205X\"\275\2042<\274\206?\263<\323s\313\274\200w\264;?a\245\274\250\333\267;\027,&=\032\265\315<\3503\361\273l\n\266\274\t\304\004=\370v\035\275\264\031\340\274R\010\275<\204{?<\336\036\225<\314)X\274\200\317\271\274\347w\001=R\341\314<\\\352\\<p\257\"\275\212S\360<T\207\212\274\351\267\032=\352\372\333<8\000z<\030Y\235;\027\000\350\274x\005\313;a\021\026\275\261a\034=(\264\006\274\336\245\373<\300\375\305\273\223\345\004=\320\375\344;\024\236\237\274\265\020 =$\375\\\274\310\310\340\273\322\200\273<c\276\265\274M\357\024\275\207\t!=\014A\007\274eu\035\2752t\350<\372v\231<\244\2354\274b\352\026\275`\025%<\263\347\031=\231\004\n\275\330@\240<\312S\357<D\233L<\272#\210\274AW\324\274\3202S\273\030\347\030<\000\262\036\271a\247\214\274\010 \250;\354R\210\274\032\342\373\2744\353T<\260z:\274\026)\257<7\363\312\274\252S\013\275\010\346\321\273\373\250\270\274\320\025\\\273\n\236\355\2748\276\035\274\032\212\277<\034sP<TS\355\274\353\213\022=\362&\017\275\340y4;N\360\311< K\301;\212\370\'\275X\007\232;G\350\017\275\200\333o:\240\365\"<\262\223\254<\230\356\351\273\374} <\334_Z\274\027E(=$\025\022\275\2621\333<Jl\341<|\330\302\274\260o!\275q\243$=$rS\274\306\342\251<\020\254\244\274\204?S\274\300/i<\247q\025=~\257\320<\320\232\241\273\333\006\013=\020\202n;6B\264<\n+5\274.1\375\274\301\364\037\275\367 %=8\353\222<\242\n\347\274\022\\\347<^&\217\2746\334\321\274\373r*=\n\271\217\274\\\377%<G\014 \275\306p\000\275\266\242\363<@}\024:s\230\033=\345\233\020=@\007<;\010\211\207<\320\257\032;\032\321\315<`y0\273)]\014=\t\226\003\275\257\033\360\274h\305\356;Id\310\274&(\305<Kv\211\274\300\364\226\272(\244\332\273\241\240\007\275F\254U\274H\004\345\273p\273\n\273\0228\312<b\227\271<\244\275:<{<\377\274\220]\227\273\317\204\006=\031\254\021\275va\017\275\016\357\r\275\2247\004\275\252G\024\275`j\340:V\004\"\275${p<Z\243\316<\"\037\262<\260\267F;\224\226\020\274\224\321!\274\214\346\235<\212\001\273<\177\222\023=\203_\013=4\214\r\274`\007><\\\027$\274\260\r\344\273a\227\021\275\364I#\275\370G\242;\206\372d\274\266\364\252<*R\244<t\030\200<\344Td\274\010\201\352;^4\314<~W\023\275\241\"\305\274X7\007<3P\010=Bs\260\274K\'\214\274\002\314\272<\210\204\257;j\243\352<\275\356\n=(\223#\274E\004\007=\350B\226\274r%\377<j\032\275<\016\241`\274@\367\024\275V\272\006\2758G\373\274V\215\206\274\365\233\000=#Z\263\274T\017+<t=^\274ss\260\274\3007n;\275\346(=\023A\317\274@[\270\272I\316\232\274\323s\001=E`\"=`?\270:#\223\322\274\232)G\274rt\351<\000\241\303;\262\000\202\274\345\365\030=k\302\n=\010\323\203\274\203\254\r\275\335`\016=\230\302J<\370\355\254;\322\342\342<x\301\202\273&\310\270<\200\260\312:\260*\312\273\216\177\332\274\024\2722<L\216?<\342\032\327<\211\300\037=T\250U<H\221A<\377\346\031=\036<\332<\220E4;\014\032\"<z\332b\274\3574\017=t\034\214<>s\301<`i\267;VF\350<\304L\n\275\274h\032<\032O\244<\353-\036\2754\345K\274d\202\035\274\360\220}<\223\014\336\274\226\031\270\274~\311\241<\016?\304<\000\034\236\271B\256\314\274\200rk<H\266I<k\314\264\274j3\373<\256\005\352<\354r3\274\360\256t<.m\264<\312\237\256\274+\270%=\254{\"\275\260\"&\274RI\212\274\230s\204;\203\363\342\274@\010\213<X\354\"<\214\224\227<\264N\273\274b\276\356\274\320\205O;\000\357K<{m\017=N\212\346<xI\244<\230\016\003<\264\357\357\274`\t\020\274\000\242z:\020\302\002<U\351\r=`\024w\273\270\\\230\274\\h\025\275\313\277)\275\370O\206\273\340/\007\274\370P\204<\034\024k<0\307q\273\376\360\007\275\304\007Y<i?\026\275#\230\322\274O\271\026\275\tx\033=P\276t\274`0\001;3\301\204\274XV\246<H\362;\274\236\221\374<rj\333<\016V\354\274\260\273\244<\324\305\n<F\371\343<\310\250\325\273\020G-<\214\375\003<\036\311\017\275\000\362!\275\037\223\314\274\240\242L\274\364,X<\010\364\251;.\264\376<O)\252\274p\373\222\273 q\214<\026\222=\274\213n\326\274n:\307<\262\263\035\275\225b\004=X$\221;gK\"\275B\230\n\275\034\357\300\274 k+;\204d\346\274\336\335\357\274\203\200\005=T\201&\275\260\004\373;\240!?<\300L\233\273\3347\022\275Y\334\022=:\216\323<\020r\025\273\020\313\300\274H?\020\274!\373\001\275#\351\t=w\302\007\275`,j;/d\002\275l\010<<\312W\033\275\025c%\275\204Zl<\010(U<H\307\013\275\210b\211\273\232\264K\274\037\215$=!)\004=\337.\016=|}\347\274ZK\367<\335X\021=kO\325\274.\307\245\274\220\372\321\274\342\364\335\274W\342!=\032\272\331<J\236\236<Y\217\001\275\255h!=\250\234\357\273\214\224\016\275\221\233\222\274v\375\352<`]\345\274,sk\274@%Q\273\030\365\004\274|=\227<0\304\027<o1\"=j\341%\275\022\035\202<\310\370y<\230\004\202;\036M\374\274\362\353\n\275\034)4<4\024\246\274\372O\002\275\026\205\266\274\212I\313<\372\350\372<\361\331\021\275`\343\217\272F,\361<\010\300\222<\322\371\305<\"\252\334<-\253\020=Vg\327<\020\324\001\275Y\262\032=\021\344(\275\220\307\204\274\217\346\024=_\257\013=\370,\320;x\205\351\274g\207\004=\032\323\257\274\226,\301<\255\263(\275\254\n\026<\271\371\031=\020\357b\274\340\274\312;B\000\270<Xb\261;\030I\317\273\033D\006=SA\003=\360\017\007;I\262 \275\032\362\224<\317$\312\274\216\006\210<P\317\256\273\260\303\320\273\027\364\004=\210\212\205\273\n\020\224<f\317\274<j\254\341<\236\256\377<`\227\217\273]\333\030=\310j%\275\274\253\265\274 \250\013\275\344\235p<\203~\265\274\345I+\275\336\206\025\275d\265R<?#\033=\240D\352\274\340-t\273\2328E\274\250\223-\274\246\n\354<\032\240\343<\2069x\274\370\204\216<t\230\032\275\232L\210\274&\026\341<\\@\027\274\254\354X\274g\222\201\274\327\222\n=\020v\013\275`\255\377\2736\234\320\274|\203^<\264\275\220\274\032\303\366<\240\370q<\376\365\003\275]z\013=E\315\026=\270\260\221\274h!\022<\224\213\225<\276%\215<\226~\371<\223W\010\275L\026^</\031\035=\271K\013=$J\034\274\\9l<\260DU\274\256\205\231<\010\tS<L\215\237\274\247\233)=\260\265\372;\200\326\306\273\324\033<\274\230\n\036\274\376F\026\2752&\307\274\356\032\270<@_\n<\345\222\014=\000\016\200;\0365\327\274[?)=\3338$=\3434\030=HiB<\300\030\022\273\316\033\242<\n\226\322<`(\273\272\320a\301\274\206\030\004\275\374\321\005\274\362@\330\274\000\355\n\2734\277\n<\217\304\020\275`P\211\273b\351\343<\200[\246:\220\350\\;\037\371\221\274s\374\n=\303J\037=\"\321\332<\230\374]\274\206\364\'\275\000N\2458\320l\324\273Z\377\351\274H\243 \274\220\265Z<\266-\'\275;\002\t=\224\250%\274L\351\352\274\260\252\r<\337\266\261\274\002Z\266\274\3339\255\274\036\336\365\274\\DI\274\355\272!=\245\364\225\274\252\037\375<\204\353\013\2744Ot<#\330\233\274\370\225O<j,\367<\325z\004=\324`\210<\232\312\244<\250\215\027<\242\363\266\274\216*\347<\343_+=\370[\377;\347\202\235\274$\\\005<\021\254\021\2750`\360\273\260a\010\275d\305[\274\"^\306\274X\036\221\274@\023\317:W\212\261\274\264S\n\274\017\234\"\275t\022|<\340=\266\273\360\223\366\2732\255\013\275\327\274\307\274p\310\354;\372\361~\274\227o\213\274\214,\245<\327\016\037\2758\325\030\275\246P\364<\000B\225\273`\220\262\273\017d\334\274\230J\334;T\321\035<\305\326\240\274@\2207\272@\267O\273W\225\"=\023\354\022=\033o\013=*\317s\274~N\332<\272q\257\274\014\204B<0.\n<\316\'\320<}Z\322\274\363\244\353\274J\252\376<p^\335\273mD&\275\006 \277<\221`\t=@\320s<\3407\242:\230\370[<\240\225\277:p\354&\273(\254Q<\300\362{\272\024\020\'<P\274\026\275\2227\371<H\341\310\274\314\244\206<V\304\312<Y\231\026\275\333\327\277\274\362\264\033\275=\321\017=\n\314\002\275H:(\275\263\256\013\275\364Wl<P\351\243\274\033\375\016=(S\215\273\016\010\223\274\262\'\363\274\354\323+\274:\366y\274\346\375\007\275\214$\"\275P\217\225;o\343\361\274\300Nd\272\036\272\330<z\321\273<\245K\312\274\264I\241\274\212\277\334<\300?\016\273\250\235\207\274 \355\244\272\'4\242\274\325=\366\2746<@\274v]\375\274\000\372%\275\\R/\274\316\300\230<\036\260\253<\377\371\263\274;\330\036=\340]\315\274\3767\\\274\010\303\275\273@\271$\274\277\373)=\376)\016\275lJ\201<\2267\261\274hS\367\273\330\313\300\273:\006\225<Pgt<\031\302\244\274\310\213!\275\351\n\035=x\335\347\273\310\271\256;@\212\005\275\236J\343\274\006\332\315<jj\014\275\272S\322<\230^\354\273p\353\361\274\022\377\244\274T\335&\275\000g8;$\255\232\274\260\210_\273\264QS<\252T\306<8\364\002\274F^\374<\237\240\022=\331\205\027=\326$\n\275\032\320\221\274\340\t\211\273\333\317\027\275\236\034\344\274b\335\365<|\027Y<\316\212\256\274\320\n\277\274\323/\010=\031\266\003=\204+%<\200y :2\312\345\274`N\215\273\032\031\237<\360qH\273-\377\211\274\300\207\357\273\324\234\253\274\200)i:\370\350k<\030H}<\235%\215\274\242\026]\274\201\376\214\274e\366\n=Nc\207<\211\346)\275=\321\036=\220+u\273*l\311<\260\316I<\340\236\230:\000r\'\271\000K\225;T)#<\240%i<\322g\206<\005E\027=\340\317\013\275\321\013\222\274\010\366[<\356\235\325<P\221O<Rc\364<\326\355\231<\3403.\274\347\214%=\214J(\275\376\251\317\2749\210\005=\310\344\201\274\350N\275;\270\335 <\210\032\271\274\031\217&=Dp|<\200\260\223;\020eg;\2303\331\273\"\325\355< \265\206\273\247\204\037=\3560`\274\231\200\005\275T\320\005\275\224\213h\274\352\206\323<\024\253\327\274d0\207<l\243\347\274\364n \275\030\213\373;(\253\035\275nf\336\274|,!\274\350\203\243<\374\320\221<T\252\203<\264\225,<|\311{\274\321z\353\274\266\037\277<\256+\255<7U\271\2740w\230;\300\036\267:d\026\027\274\213\335\004\275lZ$\275\014\210@<\363&\037=\335-\021=\305z\017=\227>\n\275\232R)\275Z2\232\274\220H<<\016\241\364<ZF\350<\350N\214<8t\310;\000\337\365\272@3D;8\250$\275\204n\246<\311\032\031\275\300\023~<\236N\357<\025\357\222\274P\203m\273\315\010\002=@i\245<\346C)\275\t\215\r=\010#\312\273\332R\371\274\236\276\267\274m6\232\2742\312\376\274\360\007\365\274\013\226\002=?P\024\275\212g\323< 2\242\272\030\214\034\274p\301\'<\037%\231\274\332\316\271\274\177\252\021=VF\276<`\025\241\273\340;\332:\354\230\017\275\352g\306<F\276\205<\032\006\376<\360\221\310;:\225\310< 3F;\340\240\004\273M\252\024\275FL\200<\230\242\025\275j\226\363<\305\234\014=$y\222\274\376O\374<\252T\363\274\352k\214\274\005\272\314\274\200\305}<\000\342\2738\316\372\313<|q<<\234q\016\274\366\003\221<\270G\204;\320(\n<\200\371\204;\020`\017\273\222\220\265<\266\252\265<\260|\330;\022\001:\274\240\325\234\272\340\343\024;-R\033=\310\253\243\273Z\314\235<~-\006\275\372Y\253<l\364\004\274\350\237\205\274\363\354+\275X,\202<\034\374\213\274\330\202\302\273\372.\346<IL!=\200\311\256;\364\027\020\274\215\274\n=\322\014\347\274p\225\376;\354\335\020\275\t2\265\274\336\367\216<\260-V\273\356*\367\274\320\\\372;\225\336+\275\214J\001\274;\020\000=\303%\210\274\250\276l\274\020\004L\273\205\323\315\2742\310\323<\341\256\273\274v\250\346\274#i\004\275\224\306V<\253\026\017\275s\242\021=\001\262%=<\3413<\315|\336\274\356\002\224<@-\374;\004x\"\274p\350K<\0020\335\274\256d\226<\244N\025\274\356,\353\274^\\\362<\010\001\305\273\027{\"=>\377\243\274\303#\021\275\230\252\234\273\360M\351;`%\367\272\342\363\232<\322E\344<\302\002\230\274h\212)<q\324\351\274\000q\177;\374\300\031\274\345\335\017=\210f\250\273\215|\t=\243$\017=l\305\020\275]\312\014=\206\274\250<S?\014=\203\324\023=\375\346\001={\027\241\274\030\306\236<v\256\356\274a:$=R\260\255<\306|\t\275 x\350\272\007\302\220\274\22235\274F\323@\274\326\214\271\274\372\233\275\274xG\233\273\007\346$=\201[\006=\204I\006\275\322\271\277\274\022+\362<`\347]<Dw\033\274\344\3376<\262\362\372<a\375\n=G\010\203\274\250J\222<\232\316\202<I\313\010=\002\250\327<z\031:\274\024_=<\000X\2729\206Z\271<M\031\007=\250\025\007\274\002\265\335<\020\313\302\274Y\200\035\275\027\245\t\275,\315\266\274>$\373<\3312\'=0\033\312\274g[\031=i\324\021=q\317\013=\344\027\227\274\320\2570\273\030\004i<xy\372\273\377\230\021\275\320\002?\273\\G+<Jso\274\332\302\250\274l,n<\037\365\267\274\303\242\357\274\000R\3409\314\223s<\037R\333\274y\310!=\352D\335<\256\347\001\275\354h\030\275\374\007\266\274I]\200\274\010F\214;@=P<dn[<T\207\357\274\200;\326\272?\335 \275\336\250\213<\r\346*=N\352\310<\234\tg<.x[\274\302t\253<<\340)<\324o\006\275\306\036\004\275`S\n\273@\224\333\272x\010\354\274\'\016\332\274b\226\277<R\351\324<H\336\030\275E0\322\274S<#=t\356*\275\300\364\252\272\340\236\365\272#\223\"=\200]A\273\007\356\025=\350\017\253;\3065\325<p\220\024<(x\322\273`E\260:\305.\014\275\000\333\211;l\372I<\370\366X<\017\327\214\274\262\306\'\275\014\204\215\274\262\211d\274\276\n\344\274\333(\000==\177*=$I\351\274\2205\237\273h\300\330\273$\363\213<dZ\037\275\320.\014\274:\205\356<\320_2\273\260\215w\273[k\033=\200\034\221\272b\000\374<\233\212\330\274\322\322\325<\236\'\236<\317\004\206\274\216\005\335<P\017\237\274\005\307\200\274\220\214\317\273\354\225\304\274\240\334-\274p\212\230\273r\340\272<\\\374\022\274\241\037\033=(X\264;@\357\312\272\310~\207\274\0164\350<r\207{\274Jt\373\274\205Y\006=\250\343\304\274Z\202\372<\322h\307\274|\371\\\274\010\334\220\274\254\372E< a\034\274 7H;j\010\222\274\317\345\017\275t\224\211<\326\003\302<\370\005\022<6^d\274\3001\001\273\350/\004<bU\350<\362\235\333\274\366\250\353\274e8\330\274\300\305c\2724\325G<\271;\347\2740\242-<\217_\017=\021\366\201\274\020sT<\"\224\341\274\305I\354\274\274s\204\274S\367\325\274>\021\326<\240\263\306\273\306\331\346<\374(\353\274\255\201\027=K\370\001=\210\241\223\273\344o\n<\024rk\274l{\326\274f\255\311<y\220\007=\0004\216<JB\356\274\320\345r< \327\356\272l\211\021\275\240ff\273\344\236G<\312.\336\274P0\320\273\321\252 = \207c<P\260#\274F\210\272<\0021\311<\340\263&\275\210`\r\275\340`\344;0x\253;Z\302\242\274\010\016M<\213g\033=\023\013(\2759-$=\300\212\"<\352\300\255<\255\373)\275\300\351\315;I\257\233\274\337\236\027=,T\013\275\271]\023=\351\315\001=\340dq\273\257\360\016=\305B\022=\277f\000\275 \313\362;0\244\207\274\3203\367\273\356\363\355<\222\201\366\274\366o\024\275\000\316\201\270\376D\020\275\332\362\205\274f\313\273<@\273\222\272\343\306\025\275\237g\025\275^\301\033\275\345\362\205\274\010\362l<\023\301(\275\"\374\326<\311\262\010\275\006)\017\275[\245\253\274\301\342\001\275\252B\213<\256\177\332\274\356\0275\274N\215\312\274\010U \274\272\236u\274r\246\317<\025\t\377\274\370\030x\274\234\034\270\274s\306\005\275\332YW\274\017l\003=\247#\377\274\036B\254<\241\000\327\274\027\323\277\274\026\276\357\274\344\035\325\274\016<\230<\225\264$\275\222Q+\275\300\222u;\3362\336<0#i;\336\370\006\275H\334\207;Ix\002=\351V\247\274,jp<XW\232\273\300\263\364\274`}\262\272-O\310\274\200\321d\2730\301Y<\025\207\037=A{\234\274\262i\323\274\007\244\001=\244\005I<\356\032R\274Z\241\305<s\366 =e\272\201\274M\321\335\274\253\001$=\024\346\213<\336\007\376\274NT\363<\353\002\"=\n\232\254<\326V\274<\212\010\310<D\332(<j/\377<(v7<\247I\001=\360\200\377\273\351Z&=\261\335\007=\272\367\366<\311\'\004=.\375\326<\216\224\306\274\242\\\374<\036\327\221<K\274!=\260$_;Q\337\022\275\244,\001<\272\224\245\274\254|*\275 \306T\273\260g6\273\334/\221\274\254a\034<\335\023\302\274\266\243\263<\"\356\270<4\\)\275\226\241\206<\351\242\004\275\310\276\022\275\300\200\r\275\342J\001\2750\"\032\275Q\337)=\022^D\274\030\017\200\273;O\016\275\200\014_\273\211\376\017=\376\333\334<pt\252\274h\222\363\273\2664\312<\221\237\013=l<\337\274\'\276\034=\3005n<$\265$\274\nH\373<\223F\t=\203\336\001\2751\003\027=f\376\t\275\234\350w<\247\363\035\275\2204\211\273hr\032\275\355\017\267\274\362G\227\274\335\200\035=\000\0325;@\177\004;y\340\323\274|\366=<\034\\\231\274\230\014\200;\002\020\201<\340\214\n\273\177\265\243\274\224\033\236\274\327r\026=\314^,<\036\206\235<\214\212!<\236\237\355<\2564\266<T\005\215\274[\362\023\275\233I\t\275\364Yy<h\257\346\273p9\231;\r(\"=Kz\'\275a3\266\274\252B%\275\032\367\260<\262\312\377<\007(\216\274X\006\376\273\311s\005\275\000\206[;\037\277\021=\032\307k\274>\027\307\274\013\016\255\274\250\350H\274\370\275\326;#x\r\275z~\374<\352\213\322<\020\275Z\273 \376\t\274\272\036\356<qw\306\274\266\234\273\274`\026\314\274\341\301\t=l\\+\275\210\313\202<F\341\353\274\314=\233<\234\344U<]l\001\275T\326\036\274\314\230C<\370$\316;\272\354\310<\231\001\355\274P\254u;g^\223\274G\222\035\275\006\001\275<\343\255\217\274\030\020 \274\0006o;\265/\013\275\272\363\257<8\276\230<\315\205\r=\361\200\031\275\305\021\034=\200\254W:j\r\312<\204\"\014\275\225D\270\274j\301\303<\220h\024\274af\030=)\'\261\274x\037$\274\314\222\022\275\347\343\317\274\332\"\032\275\320\253\273\274\270n\372;\224\341\220<\367\325#=l5j\274\320|\'\273\306\242\303<\306\264\256\274\256?\301<C\205\005\275d\2220<\303E%\275\364\t\007\275\25046<*\203\034\275\365\217%=~u\216<\016\363\r\275\260=\210<b\325j\274\300\265\270\273\250\313L<`1\017\275K\212\324\274\000\210\376\273H\357\346\273\350B\235\273\324\323\n<\331/!=\270\214\252\274h[%\274Bx\226\274p\262x\273`\373\034\2744\241\333\274\3526M\274\353\222\214\274sD\030\275HO\226;\320R\';\204*\030\274[B+=\271\202\005=\350\314\331;:/\256<\327X\017=\000\242\324\273<u\002<\037\245\010=V\313\311<\3463$\275\000\010\2079\347\377\021=\240]\223:\010\013\001<\311\356\020=(Sw<\320\000u\274\356\350\215\274\220\324\021\273JY\266<\376\202\021\275\252\240\200<\2069\r\275R\377\244<,:a<4\026\003\274\037T!=@\326\334;\274\3025<\251=\254\274W\"\026\275\000\211F<\027\356\"\275\216h\335\274\315\255\310\274|\324\037\274\035\001\t=\270\235\"\275\207\024\t\275 x\t;,\211~<\362\263\350<@[\233<\000Ol\274\350\235\013\275\206\340a\274\264:\003<\270\332\202<\210xF<\260\003\371\274\302^\347\274Pj_<S\356\023\275\020q\367;\226u\320\274\000\211\230;\024|\313\274\222\351\323<\345/\013\275`N\206;\200_[;\306:\234\274Ta\'\275\000=\0359t\205\250\274c\223\t=\376Z\344<\"\260\334<rmB\274\305F\"=\232\003\255\274\000\357s9\204x!\274P\256\013<a\234\016=\016\257\232\274\304\217\246<\300\222\022;\275\244\356\2740#\206\273\260\r\252\274\222\264\244\274\025\252\253\274\240\2463;T\223\n\2750\326b\274\036}\000\2758\236\337\274u\253\"\275\024Q\205\274\000\375\0339ha\021\275\262l\027\275\241\245\035=\320\211\307;\254r.<\260E\247\274x\243\215\274P\337a<F;\361\274\260r5;\356j\214<\240\335(\274\342\237\241<\220\330\017;\225t\031=`\250\337\273\275\333\030=\335\375\013=\364t\237<\200~\033:V\255 \275\017\303&=Xh \2743\301\354\274\252\245\257<\020i\374\273cM\031=\030?\317;\007\271\017=@\213\334:\372\024\324<@\211z\273\204\362!<DD\360\274 \351\n<^\226\370<\231x)\275R\214\330<\330\231\013\274x\337\006<$\357\025\275\200\206#:\226\267|\274\356\026Z\274\036\323\032\275J\303)\275\364(T<\000w,;\267}\234\274\260@\023;\345\321\024\275\265\226\033=\274\377\344\274\375\346\351\274Z.\332<\000\007\247;\371\251%=-{\010=\240\247\371:\374\033K\274+\035\016=2D\032\275\014\037\037\275\r~\'\275\310\350\223<\314\323\'<[0\322\274\216j7\274\350uk<\020\272u\273\022\323\253<*-\203<\353F\000=\222k\347<\252\\\370<\024\243\023\275\342&\272<\243B\007=\n\362e\274\371\216\331\274\340\264q\273\000r\232:T\214i<\200\267:\273@\332\216;pW\002;\250\005_<\252D5\274\326q\313<\032\224\367<\252\265\207\274\344~-\274\264/\000\2750\274\341\274\330{\321\274 -\307;I\342\'=j\035\377\274l\377\020<\334>A<\000\024\370:&\207N\274G\214\255\274v\352E\274\327\024\266\274\026\363\231\274\221Q\230\274v\266\333\274Xk\203\273\200\340\311;\021\200\027=\340\217\251\273\300a\336\272\350-\275\273\334\257\217\274 \\ \274\245\243\024=\006\362\250\274\\\360.\274_\277\r=\300\270{;\340#\301\272\260\306\032;c\214\033=@\361-<<\247\237<\320x%\275\020\336\263\274\007\337%\275Z\255\375<jE\212<\234\3270<D\212\000\275\232\n\323<\032\330\"\275#\221\004=\022\032\001\275\2229=\274\025\211\007\275\n>\252<p<\251;8\212\315;0\330];\304\243~<\344\353\220\274\364\275\220<\220\233\003\273\310\007\t\275\340\365\234<\377x\033=\034\317\037\274\177\264\005=@\004\025\272,E/<\330 \'<\033\311\"=\230\032P\274V\026\336<\036\231\300<p\002\310\273\nC\211<rr\376<\240\317\274\273&\375\344<\276/\330\274\212\027C\274T\213i\274\376:\372<\020\274\304\274R\032\313<Z7\310<_\225\342\274\346\335\177\274B\342\273<o\027\027=f^J\274\356G\343\274\\rE<\312\276\263\274\"^\033\275\264\251\346\274J\315\251\274j\276\224< \345\330\273P\320X<\n\364\220<\210\337\366\273\2203\001\274\372\275\335<\372J\361<\010\221\247<\264\362t\274\315<*\275\270m\370\274\210E\263\274\260\275\222\273(\240\260\273[S\033=\303\345$\275\210\374@<]\201\005=\3143\233<\276\242\361<\336P\325<\336\337\227<R\nd\274\344#\002\275~\216S\274l\346\033\274\326W\271<P\324o\273 \373\322;!\355\305\274H\317\314;\000v\373:H[$\274:-\320\274z}\303<\"\333\267<\226K\346<\300t!\273\322\372\026\275K\244\026=\230e\271;4\336\t\274|\356N\274\342\204\307\274\016aw\274i\324\000=n\217\330<a\341%=\347K*\275\301\221\n\275@\rR\273i\003\n=pMq<\372\335\231\274T\300\245<H\017c\274\267P\247\274qe\014=\206\320\313<\334\310\030\275\312\335\272<\201\247&=\200uV\274\034bo<\000_w\273>\325\262\274\325\034\001=<\264\300\274\026\'\242\274\211\n)=,~\006\275\320\257\224;\324\255$\275\202M\320\274X\"p<\001\327\200\274\325I\321\274Ss\025=\235\251\001=\252\234\222<\212\322]\274\252\376\222\274\357\034!\275\356d\254<n\352<\274\262\355\352<h\250\367\274\212\023\356<Hw\002\274k\230\035=F\362\376\274\206\216\370<\000U~\272\347l\r=\000\000\2378K\267\255\274\034\032\005\274\226\261B\274D`f<#\001\321\274Q\201\303\274\305\333)\275\373\364\260\274\325\360\330\274r\230U\274\n4*\275\372\220S\274\232\020\256<\210\251\347\273\\?\002\275\0377\261\274A\004\342\274\300\276h<\330\331\200;\342\326\376\274T\256(\275O\275\331\274\340\276v\273|U\244\274\376D\300<\362\275\354\274\320*\264\274\266Z\302\274\\\276r\274\340v\360\273&\241\266<@_>:\000\206\2708 \236\274\273)\345\353\274\000\371\365;K\223)=\370\022\344;\0218\031\275<\223$\275Xa\241\273\302\273r\274\273\342\001= \034\240<\224\035\026<\262\223\364<\257\010\260\274{\325\246\274\210\211\202;2\373\362<&N\301<\204#v<\370\241\347\274\331\375\017=\211\355\023=\260\235\337\273\336\222\342<\270\326\220<\020A\272;\342>\323<\260HG<\334\033G<hh\212\273 \374?;p\343\321;\230\247\240\274^\314\301<v\257\221\274&cF\274\256\246\310<44i<k>\303\274\216\315\304<\311\036\013=\220\177\310;\000\001\343\274?3\215\274\207\361\242\274\232\030\227\274\222I\312<\366V\232\274D\331\205<\364\n\254\274`\314\024\273D(<\274\\\304\n<\010i\276;`\006\337\274\337\264\017=f\353\031\275\204\201O\274\333\206\225\274\234\323\000\275E\203\'=\340\003\371:\230g\232<\000\363\311;B\263%\275N\330\260<\000$\356\272\034M\234<\374\363\023\275\200\202\334\272^\242\320<z\336V\2740\242D\273\274\367\025<\021\376\210\274\226\300\207<,/!<u\021(=\350\324\326\273P\360\004\275\253\224$=[\262\020=\222\202\354<NU\014\275\210Q\216<u\\\n\275\233`\231\274\340\244{;\321\216\t\2752\230\276\274B[\340<+\325\333\274u\373\013\275\200{\343\273\024\327\213<\364\225\321\2748\277\370\274\362I\037\275:\342\225<=\005\'=`\342\361:\3706n<!\004\036\275s\344&=\t\233\n=\340\337\026\2748w\321\273\316\333\302<H=\271;z)\217\274\374\321k<\204\211\234<\376\235\253<\330\201]<A\255\"=@\343\362;\236\243\215<\252\020\313<Q\005\022=\"\275\250<\206\265\357<\326T\322<\030\354\310\2738\030\306\273\010l\215\273\031\365\240\274\362\304\257<\220\277 \274t\230\201<\345\205\r=\334\022\276\274\031\265 =nI\210\274\3005\337;6E\317<\022\242\202\274\000\330\302\267N^\301<\032\211\352<\310x\222<\270\022\363\273\006\030\273<\000\357\025:\262\222\204\274\376\242\337<\210\'\354\274\214\324j\274\332\267\360<^\252\266\274^\223\301<\027\364\024=\366\377\254<\360\235\003\273g\250\024=\200\220\201:\006W\232<\200\251\257\273\363E\201\274\256\022\350<T\005e<\332N\000\275\025\361\245\274\375T\r\275\304\363`\274\037&!=]J!=\000\354F9\023{\310\274B\360\363<\226\361_\274\255C\037\275$\350\241<\\X\331\274\000\350\266\267Ni\374<\200\305$\275h\004\215<&\010\026\275\336\240&\275r\010\367<\267\334\355\274\365\360\000=6\271\014\275\370q\226;,\342\010\275y\024\032\275\031\215\024=\320\017B\273`\351\013\275aH\037=)r\020=\035\020\201\274l\303#\275\322\367\276<\373,\024\275\000\230\327\272j>\365<\022\024\224<v\365\274<(2V<:\026\234<P\344\027\273p\351\255;\355H\325\274_\257\007=\013\255\005=^\211\324<$u\242\274b\240\210<\000\334d:G\360*=\371C\233\274\\\356\231\274\356\034\345\274\021\n\027\275\200*\210;\332\341\220<R\371\240<V\200\354\274\201f\354\274u\226\233\274\274\223\372\274<\020\366\274\260f\365\274\346P\335<\274e\002\275\223\010#=\340\351\025;\\^\036\2745\227\025\275\360V\212;\267\360\024=\265\224(=M\327\027\275\013\377\024\275\370\"\207\274\037w#=\320\231Q;\310\377b\274\\\356\034\275\177\377\r=B\314\342\274\000\332\314\272\221=\r\275\270\351e\274\330(\023\274\376\031\377<\230\267\322\273?N\317\274\300\023\261:\350^\225\273\301\033#=@\204\335\273\270\232\225;u\305\013=(\376\277\273^\275\251\274\210\277\247\274\214{\003\275V\310\252<\212<\262<\247\210 =\300\2723<P5\022;a\276\301\274\220\033\t\273\242\2211\274\254\325;\274/z\272\274A*\013=\200\014`\272\200\340z:\240p\342:T\201\t\275F\335\034\275\200r\344\271\205$\214\274 \236\232\274\277\361\310\274\026\314\351<7D\001\275p\200y;\312\315\003\275\330]\364\274\376\010\037\275@h\353\274X\221\355;\034\014\221<N\354\351<\335\374#=\0306\330;Q\250!=v\224\033\275+U\332\274p\266\231\273\257\275(\275VB\267<\220j\004\274\360\264\026\275\205\177\035=\200\335\222<0Y\236<N\366\373<\003s\247\274\367O\'=r\2175\274\000\311\322\2726<\343\274\267\336\346\274\275\265\022=w\217\010=\315]\013\275\2211\030\275\002\266\230\274\230\031\220\274\330M\256;\316\220\321<\222:\252<\300\351\"\273\000\203\201\271\250\227\327\273`5\202<@\320\222;o2\002=\0274\243\274\235\250\340\274\200\000\277\274;]\004=\253\312\035=\360#)\273\334\025\010<JW#\275K\205\036=\354\246\323\274@`s\272\246\353\377<\224k\244<`\300\310:-\352\007=\026\001\275<e.\t=\000!\353\273?v\035=<\247\240\274\366\037\315<\376\237\355<\214K\t\275\236\036\001\275\3054\013=\006\266\205<$/\013\275\034\013=<X\010\n\275\010\260v<\263\350\305\274\264\315c\274:\371\362<\217\347\377\274@\365o;LDg<\021\354\205\274\361\337(=\2707\242<\220B\265;\242<\327<\320u\036\275\\\024f<\013@ \275bW\306<\005P\003=R\3225\274\272\273\252\274\2703\244;\300+\211\273\350\346\271;&\356\366<\270\n\344\274t\212\'<\340\013/\273\321.\021=\210\226\014<\353\343 \275\242\332\330\2749@\222\274(\254 \274/\373\033=aS\r\275<\270+<\341\300\276\274\206\267\340\274\0108\303\274`\336}\273\177\005)=\265\221\020\275\037\276\035\275.9\233<\002\305\377\274\200\3540\272$\316N\274\222q!\275\331\027\225\274\357\016\007=5\006!=\220\315\032\275/\373\213\274[(*=5}\204\274\340\255V<L9\037<:<1\274\020\313G;E\022\025=\001\271\007=P\202&<\375\202\350\274d\310\225\274h\306\237;R4\270<\316b\024\275 \336\366\273\014\310\202< \225C\273\\$=\274\366\376\257<\340\331\271\273\372\327\255<\305\223$=[)\030=I\241\'=\221\020\013\275\224\207B<\306B\240\274to#\274\343\"\275\274\376\206\317<\360\351Y<5\204\315\274v\235\345<d \207<\361\205\031=H_\276;\357\'\013=$\362\267\274!.\032=\342x\320<O\367\001=\300|\377\272\224\364O\274B\014\251<\325\202\030=\346\010\276<d\301k<\032\005\356<\204R\342\274\002\233\336<\326\013\333<&\323\r\275P\240\313;>\022\346\274\270|^\274\006\n\237<\336\301\244<\020a\321\274\340O\336\274\314\217\"\274\341\320\037=\016\205\255<\376\277A\274\336]\356<q\221\006=\2606\022\273\000U\355\273.<\320<\025C\214\274b\214\220<w\227*\275\016\227)\275\352\221\211<\026\367\327<\300\313\023\275=\370\016=9\310\003=`\241\322\272\326F\005\275\230\335V\274\272\005\254\274\276\253\342\274E\275\325\274\020\005\275\273K\256\027=\025I\t=bh\332<\010\347\203;\032\220\326<\260iV<*\205\275<\211\241\024=<\035\013\275\275K\010=\007\305 =\022e\237<\222p\t\275\206\220\365<\350\324\177\274~I:\274\016\346\247<\221\357\022=\000\351\372\271f\377!\275J\353\022\275\360\245W\273\260\037\031\274\232\317^\274\371,\002\275\304\346I<\354\030E\274\347x\020\275<Hl\274V\274\350<bD\305<\371\273#=3Q\013=h\020,\275\200&b\273T\304p\274\356i\261<\375\345)=7\316%\275n\306\352<\320\245\035\274K\204\006\275\202H\272<<-\222<v\365\266<HU\'\275$#k<\n\346\356<^\026\356<`;U\273\310A\312\273\363*\t=,V\303\274\030\312\272\273\257k\300\274\217/\014=\001&\023=2\264\271\274\200\377\277;\313\242+\275\000W\303\27181\346\273c\261\024=z\265\357\274\025\205\025\275G\300\231\274\n\307\240<\256\030\243<P\223c<\360VO;F}\377<\212p\270<\002\320\'\275@\346\242\272h\346\005\275V\231S\274q\313+=5\267\256\274\310\351\035\2744\267\230<\000\255\"9\306M\355<Zt\257<p[\270\273\000V\0379>\234\326<@\246\206<\342U\250<@\022\276;\003!\220\274\350\224#\275A\n\013=\2653*=\0108\247<A\352\n=\020D|\274\206\020\302\274\340\033\004<\274\343E<\260\350V<\200\025\322\272@\347\017\275V$\326\274\310\216X\274M\234\224\274*?l\274VK\257<-\313\033=\370\331\250;\200\216\246\272[\332*=\016\300[\274`\216\371:\260\350\036\2750\220\312\273\025\356%=\036\336\272<\340\245\351\274\020\\\022\275\0259\020=\241\003\020=\307j(\275p\030\367\273\256\004\031\275\376i\031\275\340\331\005\275H\351\261\274\"\212\220<\014\243\036\275C<\024=\241\277#\275\000\030\224;\004\303s<*\221i\2740\006s<l\326\027<\320vd;\010\007\206;\300\202U:?#)=\351\207\220\274\354x\273\274P\351\342\273 Y\213\273\002\307\362<\317\203\262\274\010H\312\274\242\240\363<\205\340\010=W\340\020=\222\343\220<\020~\n\273\336\303\333<\000[\230:\373\300\r=\t\313\344\274\213\010\213\274\304r(<\\\274\301\274\226\322T\274\310s\030<hF\031<\356K\010\275\256(E\274\322\362\304<\000\325z9$^!\275\351\211\"\275\320\300\360\273\303\210\322\274\237\\\336\274\340KQ\273\3409\030\275\222\315\354\274\344c\245<\030\001\026\274`1\r\274\305\204\237\274|\032\207<.[8\274\200]\24198\036H<\241\351\242\274\324\224!\274\250\264\241\274\300\352\231\274\210\243\216\274\261G\032\2752\026\035\275\2112\273\274i\014\210\274\344\371\267\274\362t\342<q;\005=x\003\203<\230\244\r\275\374\227&\274\030\315F\274\347\227#=qk\032\275\034\177\217<\250\340\241<\360N\255\273\300\302\030\272\3727<\274\240\221K\273S\224\037=\300\252Y:\000<b\271*\017\274\274\205\017\025=%\017)=\342\243\225\2747\"\020=\000\320\214;\320\355W<\225\347\224\274n\377\336<\000\324\r\272\364\025\266\274h9\234\274iI\033=\330\307\235\273\2149\302\274R\256c\274\242,\276<\023\302\001=\240aT\273\265\t\317\274\036\210#\275<\243\223<\220\275\256\273\0004\232\271,\207\223\274\005\275\355\274\250\342x<\020\224\000\274\200\324#\272\020\301\023\273\360\004\376\273\025\033$=\300\t\016:\234n#<\200\365\340\272\352)\340\274\326\335\222<V8\324\274[\361\247\274\260?\307;\364?\n<M)\006=I\237\006=n\252\241<t\304\007<,?\034\275\201\367\374\274\020\377\230<\353\257\014=\304@0\274\366y\352<v\353\307<`\353~;*l\000\275\'p\306\274\226F\336\274\033\242\032=\2165\210<\020\226l;\260 e;`%}\273\270\314\232\273`(\263\274\341\320\016\275\022\210\360<\330]\337\273TuT\274\360\017r\274*h\033\275\000t\032\2737\266\'\275>\204\210<\277T\302\274\320(+\273[\253\200\274@\006\225<\346S\030\275\200\232\246<\362\263\277<\256t\361<\333\223\027=\232\277 \275J\221\317<dq~<\342\376\243\274\310\320\327\273\005\013)\275\\:L\274\206\244\325<\260d\372\274\364\257\022\275*5\016\275\036\241\300\274y\323\022=\323\315\002=9\021!=@\331\'\273\362\235Z\274\344\353\371\274\226\355\305<~Q\245<\"\016\367\274\362\336\316<v\215\357<\221\214\'=r\262\310<P\205\006;p\276\000\273\217\377\360\274\235H\'=\232\227\250<\204\371i<\300O|<0\346\t;\374\305\360\274\300.\337\272\031\375\332\274\0145\255\274\255H\325\274h\257\336;\202\232\276<\360\222\010\273\312N\355<\317d\311\274u-\320\274\245\345\013=\330\306\342;R\021\261<(\267\034\274\274\307\016\275J\n\276\274 >a\274x\221+\274$8I<Gh\001=\310\332S<A\013\'=\177\317\017=\264\230\033<\271j\000=\313\270\006\275z\371\224<\002\362\305<`\213\271\272\250\340\354\273\336\r\263\2741\236\014=$\007M<\250^N<\306D\255<\022+\374\274@\031\237;\344#\210<Z\302o\274\244<\204\274\336\020\234<\310\t&<\232\353\211\274HN\000\274\3560\366<\240\202\310:\216\000}\274uk\324\274hv\260;X\242\035\275\027\376+\275\002\351\t\275\021\351\033=\356 \336\274\2449\320\274`\245\024\275\333\234\365\274\020\232=\274\363\267\'=\002,\352\274\266\307\016\275\235\236\256\274\027\367\027=\177F\r\275\020\305M<\324 <<`\367\347\274\304\205I<\270P!\275\223\245 = \342\351:\372^\254<\010!\262;\311\220%= O\201;\000\334\032<\360\370$\275\254k\230\274\355\216\217\274\355\022\267\274\264T\021\274f\374\001\275\344\nG<t\023\026<@?\313:\240F\245\273 \204k\273\000s\002<\336\335\351<\314\374]\274\210\313\236;\n\254\256<\362\336\315\274\256\335\205<\331n\031=\324\215\263\274\253\314\003\275\005c\024=t\314,<\016\245\310<\n<\367<\270\275\267;,\013\206<\210;\360;\374\t\313\274\210}D<\0200\310\273fg\250\274\000\247\235:j\260\327\274\230t\362\274:\311$\275\032j\313\274\212\240&\275\334\266[\274@$\242\273\200\265\264;\304\274\036\275\342M\207\274\304\\y\274\230\035!\275\216\256D\274\3220\271<M\217\023=\240N;<#T\r\275#x\371\274\000\225\253\273\212\265\365<I^%=\244\301m<\272\227\253<\177\343\024\275\320\027T<\342\002\356<(\213\245;\260\271\317\273\305\277\323\274\000B\214\2732\013p\274\315\316+=\230\265_\274\240\262\223:8k\267\273\233\025\004=\304\311\'<\215J\350\274\345\305\217\274}\277\372\274)\r\017=\230a\346\274e\t\016=\250t\376;\003)\000=\276g<\274\242\310\241\274&\321\255<\250\022\274\273\234\341\236\274\346:T\274\306\211\350<P\343\252\273;Z\210\274\006\027\267<\232\253\211<\361\'\021=\226]\340<\3407\357\272\220\3168;\"\273\361<\362\331\233<\004\321\206<&\316\372<\373M\220\274PM\024\274\364\333W<{T\270\274\313\305\014\275\350e\302\274X\224C\274\212[\016\275qK\036=\020\313g\273\332\031\277<\222\361\326<\022t\363<0\313\234\273\240\352\177\2730.x;Dl|\274\220j\254;\342\243\270<\232\013\352\274N\256\220<\244\311&<\254)\\<\362\306\371<$\031\006\274\\\3530\274\270y\227;>,\225\274j\031\204<\220f\002;7!\346\2742\307\372<\227v\004=:\251\355<\032\262\251<\000\370A:\263\362\276\274\324\016\"\274\000\031\364\272\036\332\257<\022\313\204\274dWE\274\263B\035=\026\313\337<\310\210\327;\\\326\037\275\276\320O\274\\\225\026\275\014\257\330\274(!\245;\2406\247\274\366\226\377<\036\361!\275\260\227\027\273~\270\327<\260!\345\273\306\\\337<[\034\007\275\016\371\227\274\222\372`\274\207\315 =\340a\273\2724$\005\275\254O\007<8m\351;\370\223F\274\361\223&=\033c\227\274\316\207\036\275\252k\356<\025\200\025\275\220e\"\275\336m\257<\222\322\360<\004\021\321\274be\354<Ar\310\274\200\237*\273\216q\314\274 |\255;\201\320$=\262\033\020\275{/\254\274\3148\234<\270\373\030\275\003o\266\274dB=\274\243\266\264\274 m\203\273\300K\027\273\030\316\311;\366\302\240\274\355}$\275\270/\340\273p\325\367\274\254\227\003\274\347T\235\274\2004\345\273\242\307\367<P\350/;\214T%\275\255\357\332\274fg\302<`\220\233;07`<E\271\035\275,\222\353\274\277\260%\275\360\237\221\273k?\'=\271m\211\274\266N\343\274\253j\030=\254\322&\274\256>\270\274\332\367\366<\220\257\366\273v\274\035\275\227\305*=\236E!\275\200\257G\273\\\213}<\206\304\270<\212\301#\275(\2060<\352\337\371<\247T\t=\222\270\202<J\034\241<\231\264\027=\036jN\274J+\010\275V5\273<\000\274`\271\340j!\274\000J{;(\346*\274\250!\366\273\260\007\237\274{L\353\274<\353\t\275\310Vc\274y\263 =1\035\017=\350\267\373\274\232\3321\274\ny\177\274\340\306;\273\"p\333<\230\330`<\360\033.;\360\315\273\273\3126\256\274\203\232\264\274|h\307\274K\013\016=`\253\211\272\355\317\265\274\360\250\240<\312\321\357<\200\236\252\2736F\334\274`\230\224\273\314\0077<|5\022<\000oT:\014\254i<\263\331\007=r\302\010\275\023F(\275\374\272\351\274Ut\221\274\247\002\025=U\267\261\274JD6\274\302\344\327<\316B\337\274w\357$\275\250t\216\273\320\252E<\013\256\032=\2525\340<\376\257\n\275\t\216\000\275\013\306\302\274\351\266\001=\354m5\274e\237(\275\304f\367\274\314\221g<\006\253\231<o\246\t\275\2473\035= \372G<6\372\355<\302\307\344<~i\311<\031\323\263\274\337\204\022=\230f\"\275\354\355\376\274\033\306\301\274\234\316\377\274\210\300\207\273u\347\005\275\241\242\252\274\032{\271<\200\203\251\271\227\312\033=\261\013\251\274\311\\\"=\246\203\364\274\240\310\325;\246\244&\275`$]\273\300;U;\350_\240\273\200w`:s&\373\274\000\226}\2727\240\215\274\234\341\003\275\002\237\376<\276\267\305<\364_\261\274@\212\237<2\206\351<Z\334\246<\3373\006=\353\033\022=1g\t\275i\243\021=\010\0132<\023\343\022=Z\253\240\274\000\007\351\274:@\337<\352\030)\275\210J\222<\020\030\220\274\274\2750<\210\323\241\274`\021\315\272\270\034\213\273\260\224\362;\316-E\274\270\247\210<Z\235i\274n\236\245\274\016\240\354<\372\n\332<\255\370\263\274\207\230\334\2747Q\002= \224\017\275\r\276$=\272\021\277<\247Q\257\274H\233\210\274\rN\024=\306\310y\274\264[\022\275\235\351\316\274\226+\233\274\361p\204\274\205\315\r=\000\263/\2714\334\033\275y\323*=\020\203\026\275\254L\230\274\356\255\333\274H\203M\274\270\255\025\274@\326\324\272@\"z<\244\304\240\274`\200%\2743e\023=:\313\367<\020\277n;\230e\000<\315\246\263\274\006\025p\274\340\000)\274\320\035h<{2\007=+\262\256\274@=\"\272\326q\216<\270\360\222<\341\027\r=P+%\274\210\230\374\273\270G\216;\013\010\023\275\260\370\332\273\244\267\035\275b\306\276<\003\352\020=90\212\274nn\227<\'y\241\274[\315#=PT\023\273\374hW<fB\375<\017T\036=\320g\234\273V\322\357\274XH\n\275\353\\\366\274x<\005<X\343\220<<\0246\274\204\213N\274\014\275K< \266\256:\200\353\005\275\265z\204\274\340P\347\274\203W\313\274 o\264:L\000\323\274|\206\017\275\260\010\005;p\223o\273P\210 <@\337\254\273\364\247O<1\022\236\274%\206 =\337\335\017=a\276\243\274\007\006\330\274k\256\005=\230\217\343\274/\313\021=\246\375\275<\360-5\274\321\232(\275\006\260\262\274^\215\231<\231H\001=o\316\020=\206s\356\274\300/\332\272\336\010\201\274\260\246@;O\013\014=\2008)<\327\350\262\274\300\205\\;\242\355\373\274=\267$\275\364\250_\274\220\227!<9\220$=@\207\014\272^\346\303<\224\2257<\364\331y\274;+\'=s\023\205\274\242P\354<a\363%=\304@\004\275\020p\007\273\024\263b<\000\025\332\274\014>Q<\3547\026\274\256\232\321<R\241\376\274^\347\252<\034\240\337\274\300E\315\273\340\371\354\272\360&r\273\300\320\303\272\201q\300\274t\001\232<\236K\277<p (;\215Q\306\274\323g+=\342\361\301<\200\307\2729\200*\267:]&\255\274\366\204\344<\306\343\326<6R\266<\332\216)\275\224EH<\004\223*<\210:\022\274\000<\250\272\244\356\035\275\370\346\353\274\226(\030\275\300\026\245\272\250\241\230<v\213\217\274 \335\301:\325\325\037=`Wn;!\220\007=\314\2072\274\300\001o;`\035\333\272Q\346\262\274(\2763<\312\345\347<\232\215\372<\207\032\206\274 h\302\273\310q<<\341M&=\264[\006\275\230&\247\273\000\005m\272\177 \237\274\020\027w\273\226\254\214\274nq\266<5\371\337\274\"\007\316<0\331k\273`\356U;\352}\222<<[\247<}\200\315\274\232\234\211<\327\'\303\274<q \275E\266\333\274:C*\275\000\200\217\273\260\203(\274\326\325\303\274\362\004a\274w(\343\274d V\274P\205<\274\270P\361;\006\203\354<(U\372;-\267\'=\200\324\367:\000b\217<\355\003\362\274\264u&\275\362$m\274\302\337\324\274 W\204\274f~\253<\000\361\':\352\267\300<n~8\274 |\276;\246k6\274\2604\333;e;)=\342D\342\2740\316M\274.`\321\274\376I\304<\217\030\013\275\370\207\261;\002\r#\275\355=\003=\340V\036\275\3774\354\274>q\266<V+\231\274x\000\010\275]C\000=b\200\270<\344\234\311\274@\0378;sr\243\274\324E\014\274(\375\374\274a\373\357\274\022\020r\274a\366#=TTv<\371\010\001\275dI!<\204H\032<N\205\342\274B\321\003\275\26233\274\000\rj9F\262\307\274\200\030\364\271\3003\345;J\316j\2744[X<0\r\325\273\032S\314<G\337\236\274( \221\273\000\000\3136\322?\352<(\257\373\273\2161\014\275\365\260\245\274\340\2404\274\304\252\035\274\034#\002\275\010\034~\274,\335\210\274\034)\'\275\212\301P\274\3153\200\274\314\324l<\210K\350\273^\214\256<\030\r\337\2737\\\"=7\255\032\275\360\215)\274\302\376u\274\256&\337\274h\237\353\274y\037\010\275~9\331<\365b\t=\266\013\307\274\017\301\313\274\000,0\271\331k\222\274HP\375;\300\261\214<\241\253\235\274\267\304\034=\240\t\177<\220\303\237\2732\232\234<\037d\027=\214\373\004\275oh\002=\346S\024\275\220\3643<`\253\302:\260![\273\177\322)=Q\276\364\274\330\022\311;\251\014\030=*^\367<\320\177\035\273\354L\237<\352\227\310<L\036\025\275 \024\256;\371R\347\274\363\210\024=\363W\233\2742]7\274*\316\357<\216T\005\275\0002\r\274@$\003;+\314#\275\000\356\232\270H\256\270;*\212\265<\312\341\313<\224\312r<\363\311&\275,BH\274|\222N<l\231\314\274p\270\027\273\016\013\231\274.\246\033\275\220\261)\273\\\322\020\275QE\000=\000\211\372\273\220v\305;\3000\216\272@\r=\274\305\267\030=\327\274\001=\262\340\377<\250Q\215<(\346%\274\247\364\025=dG\010\274\000Y\311:\264\2373<\366)\334\274R\315\277<\232\272\204<.\314:\274R;\r\275\240l\362;\210\304\024<\240\352\256:\340\203~;\020\202\352\274q\310\330\274\250\303\234\274R\2449\274\240N\311:X\230w<\252\366\303<q\225\332\274v\372\321<\220\230\332;\2105)\275P\210u;\001\323\215\274\177?\020=\'\260!\275:\273[\274[\306\004\275\356\300\317\274\342X\020\275\354\374\216<\221\341\036=^x\361<|\275m\2740Z\244;L\274E\274F\252\251<:n\027\275$$\246<\254\226\345\274(\205\220\274x\267\372;\013\271\243\274\212\325\256\274\324d\026\274\025x\032=\333T\014=\244\320\032\275\225\251$=r\301\277\274\243\350\n=X\202\214<\206N\375<\\\334l<\306\366\367\274l\340M<:a\266<\233\241\007=\336\352\332<\320\202\333\274\364^\335\274\375\010\030=>9\311<\332\001\203<\234\\7\274#\324\014\275\222\263\232\274\220@k\273g\250\223\274\230\340\017<\205\320\"=x5\266\273\317\272\030=E\321\233\274\202\030\306<\2027\250\274\235#\035=\230a\361\273\201\377\312\274\255Y\024\275\340m\246:p\036\260\273\325\320\010=\373:+=\354\353M\274\323z\006=\262E\265<\002V\333\274\354%8<\334\021L<\2425\373<>\206\254<\000x>\272s~\r=`\375\372\272\310\007\357;\310Y\247;(z\331;\326.[\274\360\330\264\274\224B\331\274\313\006\227\274\302\247\366<\270\001\256\273\r#\"=\315\332\034=\277\200\005\275\211\361\026=\013\347\276\274\364\0311<\000r\215\270\205\"\223\274V2\264<\377t\202\274\210\376\234;\022\303)\275\\2d<\035\023\327\274\376\214\225<w\214\026=@\311m<R\021*\275\223w\331\274\237z\006=\275\373\270\274\300\031D\273\211\032\227\274_\207\035=\242\016z\274\2446g\274\316\342\265<\360)\031<*\027\246<\330\014\327;\300\221\020:\250Y\340\274\272;a\274\037\'\037\275\304\207*<\320\344.\274\311\206\033=\314\244\036\274\340\225L;\013\347\032=,w\\<cx\021\275\017\030$\275\207\352*=\000\355Q9\336l\376<@\306\225;\310=\"\275\250\325\205<3L\032=\213\235\021=&\202\347\274p\207h;\324*\356\274\214<\370\274\230\014\220<\306{\344<\350\020\304\273:c\234\274>\035\233<\367-\226\274\262-\302<\033O\033=P\367\007\273p\312\213<\177\316\234\274h\261\377\273\n\356\330<\273\313 \275\326\371\250<.D\361\274\260\275\366\273l\365\017< \222\360\274\273u+=\300>c\274\341\342&=\264\033\205<~\257\236\274pA\026\275k\323*=\303\362\244\274\243\214\004=\352\001\362<2\263\313<\275\003\"\275h8!\275HR\004\274\310X\367\274\370$\234\274\370\232\035<\340\321\323;\341\331\013=Ll\033<Rd\231<\000\226A9\220\214\304;\276\352\335<#X\233\274\252AL\274x\366\031\275\024\366\251\274\037\240\016=\202\204\273<\325f\032= \023\354;\245\002\'=\300\245\006<\024<&\275\\)\201<-F\021\275\2209\257\2740]\270;\240\t\265\274\367\250\027\275l\027\002<\213b\031=\260L\322\274\016\225\341<3\341\016=D\320\224\274\3029\274<t#^<\000\301\017<\316_\232\274#\326\"=P\273\013\273\352\265\210<\206g\213<\320\264\313\274\326\213\226<\200\333a;\214\335\"\274b\271\360\274\356\341I\274\324b\016\275\222\224\355<%\236\234\274\256\001[\274\363V\017=\365\323\016= \253\340\273 \241\356\274%f+=09\021\274{\213\037\275h|\347\273@\205>\273\320\007\350;\336:\221\274P%d;*\033\340<\261s\326\274\000\002\301\271(jQ\274\"\204\307<\020\006L;\207G$\275\311\336\016\2750oE\273\271\n,\275\000\240\246;R\023\360<\000\022\254\272\010\334\343\273\200\354\010\272\272\2369\274j\224\026\275\366B\277<46\016\275>q\005\275\344 \n\275\216:\360<\356\264\"\275\270\253\227<D\2629\2748\340\376\273\344\335\"\274;\r\244\2748\346\021<\243Y\023=\001\371\017=8yn\274\000\223\360\273L\271V<04\222<\324\302\031\275p\002\315\273|\020\010\274\232\210+\275y*\034\275\"\321\245<\350\016,<\304E0<\351\302\251\274\236\233\361<\340\376\277\272\000\343n\273\242\037\350<h\016)<v\241\324\274\200G#<\\@*\275!G\344\274\200\240\020\272\251X\005\275\\\376U\274\002\321\251<\315\355\034=\230\243G<:?\266<\376\257\206<@\372\026\273\201y\025=\340\010\207:@\333\243\273z\201\307<\266\033\264\274\363\036\021=H\322\375\274;=\r\275 sB<\222\r\344<j\'\315<\256\005}\274\246\373\354<`\013\336:\200\306\n\274\316\032\235<@\365\031\275\037\277\027=\200\375\204<h\261\247\2734\326\203\274\020\224};\270_\260\273\000\220+\274x\232M\274\2560\261<)8\t=2:\335<0\301);Q\262\374\274Nd\304<0\227X\274\332f\325<\316\275\337\274\303\005\350\274\326\237Z\274\231\265\007=\360\304\200<?:\037\275|\201(\275\024(V<\010nK\274\340\222\004\275\035s+=n:\241<\214\3207<\255\300\233\274\246&\322<x\363\355;\261\367\224\274\236\304\326<\307\"\215\274\320t\020\273\340R2\273L\273\237<^Z\371<\270n+<\023\024%\275vX\327<\024\022\010<$f\212<\340\262\304;\302)\016\275\252e\263<$\246\210<\350\2123\274\\\247\214<\201\302*=\260\362\253\273\206p\322<\3340~<\000\346\223\272L\n\013\275\377L\001=\210\333a<\311v\017=\202:\224\274t\007\243<\336\343C\274\261\373\241\274K\306\032=l\352\032\275(\251\004\275n\331\325<*\323\341<SN!=\000\311a\271\000\020\3367\332M\220<\200G\354\274\002\021\247<L\234-<\356\004\215<e}\210\2743\010\005=\211\313\t=\272~\261<\000077\346\226\330<\220\234#;V}\261<\000\253t\271r=\306<\001\013\007\275\315\031\261\274\362\0314\274\314\331f\274\333\344\335\274\277C\'=h\250\231\273\321\250\027\275^\350\353<\330\345;<\324 \007<\220\216\342\273%;\365\274p\351k;lv\355\274p(\001\274~\374\302<\333\354\221\274\200\311\305;\370\314\023\275\027^\255\274\252\334\252\274\274\244n<\245V\233\274\230\013\313\273#\367\236\274s+\307\274Q\322 =\206+\360<(oS<\272\\H\274\002\320\343<\303\263\227\274P6\253\273\030D\223\273\231\315!\275\333\332\037\275@C\237\273`\014\220\272 \320\243<~\245\235<\250\215\324;\224,}<@B\365;`\035\021;p!\025\275\244\240\207\274\250\3022\274vi\370<)\201\r=4|\232<0\000\002\274\232^\325\2740\260\311\273\320\355\221;i\366\006\275Vt\000\275\340\031\343\273B\225\004\275\200~~\273\030\210\363\273\236(\220<\3606c<\250\205\326\273\230\004\227\273\360[\232<TH\"\275P\'\366\274\276\206\005\275\360\373e\273\271\236\034=pAi<\370n\340;\340\324\366\273g\010+=\273\333\025=\302\244\202<\345\345\202\274h\307\246\2732\"\037\275\240K\316;\020*C\274\200\2763<\363\237\005=b\275\377<\202\313q\274>\371\030\275RK\271<\354\001&<\211\316\024=\014\220\211<\325-\000=\240\211<;\200\2110;\\\265\033\274.)\300<\310\263\200\273XB\020<\370-\013\274\204\017\035\275\336n\306<\030Y\335\274\267\214\314\2740S8\273rt\272<X\366 \274\317V\004=\310\250\207\273\226J\367<x\270\r\274\246\353)\275X\213\231\273\322U\213\274\216\n~\274\034P!<\214\367(\274B\222\267<\200\201\355\271\2058\212\274n\374\267<\314\354T<\"a\266<a\370\265\274\212\315\221\274\20463<\246e\023\275\344V\026\275\005\372\023=\313\326\020=\201\022\022=l\230\014\274\230B\216<\200\204\202\272\335F\025=\004}\031\274\326\367j\274`\213\206\273\313\213\225\274N\366\305<\312V\360\274X\217\324\273H\222\273\273\223m\303\274`\227\372\273\300\227\340\272;\327\273\274\205<\t\275\200\310\016;\362\350\320<xO\204;\276sJ\274\212\261\315<\376|\211<\nx\274\274\316e\303<\320\371\343\274\3142\035\274\200>\201\273\243\017\003=\023\267\005=\023v\023\275\206\013\277<\3209G\274\006C\"\275C\261\314\274\244<0\274/\377 =\001i\034\275\360`7<t\363\252\274`\332\275\273\2702r<P\271v\274[\215 =\345!\252\274mS\244\274:\020\264<0#\371;tB\r\275\232\257\226\274\314\340z<\374\373\331\274sd\n=J\364L\274\272\200\220\274\221G\000=\001\246\025=\371\316\210\274\234\t*<@\241\256;\250\312\275\273+\320\013\275D\330V<\322\375O\2742I\210<P\\\352;\316\"\022\275rZ\035\275\310\344(\275\020\222\222;\361\\\245\274\020\336U;<$5\2742\213\233<)\234\370\274I\377\005\275\260\361\357;\220L\';\254\326\027\274`\326\031\275\316\357\360<\273P\024=\020\007\324;\352\326\357\274\221.\207\2744R1<\262v;\274\3211\013\275\357\000\007\275\000\204\022<\000P\r\270\336@\031\275\026\025\361<P\270q\274\302\352\246\274\004]\310\274\026\242\240<\202\247\357<\310q\013<>\245\356<\346L9\274>\220i\274\272\273\373<2*\362\274+\024\234\274\215\362\213\274`~R;s/\016=U\342\004=X\242\000<\363\327\010=\266Q\264\274}\267\030\275\265\260\362\274P\375\336;m\376\355\274\325\002\031\275l-\033<\177\316\032\275\276R\361<\222\332\330\274H\346\006\275c\210\027\275\376W\320\274Q\255\306\274)\251&=\246\332\246\274\204\202\'\274\2045\242\274\032\260\235<\360\267\274;\220\357\256\273\231\363\373\274G\277)=\034g><~s}\274(\250R<h\'\322\274h\224\234;{\376\215\274\377n*=xl\004\275\000\022\241<\350]\025\275@JZ;\220@\002\273\000s\350\271 \273\332:\374\275\t<\346\213F\274X\264L<\270\243\016\275\360\270\212<\323t =\020\215#\275\031\305\215\274\210\235\240<\034\273I<v\214\257<\"\264V\274l\344\014<\342J\002\275\340\341\233\273\214@\267\274\340\355j\274\'\314\337\274u\354\002=\354+\036\275I\247\346\274\027\027!=i\346\013\275\200I\365;\336(\335\274\'\257\005=*\217\204\274t\315\220<\256S\334<\211\313\016=\312\342\350<i\200!=\333\350\017=\224F\200<\352\236\245\274\373\314\274\274\"\311\007\275p\313Y<\210g\242<\270\243\022\275\rd\345\274\225V\030=(>/\274\215\006\'=\250d\"\274\036\221\236<`?7\274d\005\334\274\346V\231\274\310S\026\275\370\031\313;\260\226\r\275\000V\346\274X\227\342\274\311\263\026=\376N\305<\000\020\'\275z$\312<\022(Y\274$\375&\274A\242\025=\034\334\001\274\000V\276:\256w\272<,\025\004\275\250\025\237<\230\271\244<\3544)\274+R\t=\303\211\032\275A~\'=\020\232\232\273\340\010\352;2\034\377<\254nl\274H\260t\274\213\242\017\275l\243\025\274\333\270\274\274\004\374\032\274\366t\004\275\266\220\366<x\243\022\274\230\\K\274\'\226\304\274n\203\341<\334\240\226<B\305\200<\320F\224<r-\367\274#\245\356\274\300\363|<\214\035\252\274\2055\"=\244}\013\275x\333:< \270&<*\331\267<c\037\002=\221%+=\240\236*\275\236\"\365<\254\205W<\337\370\034\275\260\344\304\274\364k+<:\221\353<\203\"\201\274\271\347\021=m\005$=\310o\361\274\310o_<\333\315\032\275\r\234\224\274\032\337\305<\364\347l\274\034\230\037\274`\336\200:p\201L\274\300\333\231\272cp\'=\220\320\256\273{\273\033=`\365\372;\273\352#=\242\032\023\275h\033\317;q\013\334\274\230\226-<\036\254\256\274\232\272\361<\220\253\241<\334\226}< \301 ;\222\367\033\275\023\373\007=w.&=\003\t\023=\303\014\017=\0162l\274\356\325\351<\305w+=}\246\021=0\234\020\275%f+=\326\207\206<e\t\003=\020\320b<\220\346\311\273m<&=\020mP;p\346k;D\273\305\274\200U\263\271\212o\266<`\032H;\304\020S<\200\273\r\274L\302\311\274\274l\n\275\271?\027\275\300-\030\273\010\212\355;k\352\006=\236\241\341<E!!=T*&\275\034\270\233<8\010$\275\23063<M\"\021=>\304\202<8\215\233<d\025H\274\241\036&=\366\205Y\274\006u\315<r\343\377\2741\247\'=\274\373\362\2740\177\013;\035]\357\274*\334\275<c\375\017=\370&\211\273wA\r=w\260\225\274>j\267<\003\321\325\274\005#+=z~\222<02Q;\252\324\212\274\216\370 \275\340\317$\275$\020|\274\250!\020<\331c\335\274\310\241\227\274eT\360\274\337\235\005=]\033\'\275X\2032<\354K\013<\224\016\033\274E\034\027\275\340xO;\304\237\376\274\320x\241<\314\257[<\260W\017<\264s\023\275$\314\006<\306\034\371<\306\025\314<\244MK\2744c;\274\030~\233<\235\r\017=\010\217\237\273\031_\037\275\240\343\000\2741B\027\2751D\035=%F\036\275\247g\022=\016\006\316< 